<pad>	0
<unk>	0
<s>	0
</s>	0
▁t	-0
▁a	-1
en	-2
er	-3
▁d	-4
es	-5
▁s	-6
▁l	-7
▁c	-8
in	-9
on	-10
he	-11
▁p	-12
an	-13
or	-14
os	-15
ar	-16
▁m	-17
as	-18
▁de	-19
▁the	-20
qu	-21
▁o	-22
el	-23
▁h	-24
re	-25
▁w	-26
is	-27
▁qu	-28
al	-29
▁b	-30
ed	-31
at	-32
▁f	-33
it	-34
ad	-35
▁y	-36
▁n	-37
▁que	-38
▁of	-39
nd	-40
ent	-41
ab	-42
om	-43
▁v	-44
ic	-45
▁to	-46
▁in	-47
▁la	-48
un	-49
▁en	-50
▁and	-51
▁el	-52
est	-53
us	-54
ing	-55
id	-56
il	-57
ro	-58
▁th	-59
▁con	-60
▁se	-61
▁g	-62
▁no	-63
le	-64
ra	-65
ch	-66
ir	-67
ía	-68
▁al	-69
im	-70
▁e	-71
ur	-72
ci	-73
am	-74
ol	-75
▁su	-76
ig	-77
▁un	-78
ul	-79
ion	-80
te	-81
do	-82
..	-83
▁re	-84
▁A	-85
ut	-86
▁T	-87
▁wh	-88
▁S	-89
▁_	-90
▁be	-91
▁es	-92
--	-93
▁los	-94
▁r	-95
▁le	-96
▁com	-97
ct	-98
ce	-99
▁est	-100
▁P	-101
ta	-102
▁por	-103
▁C	-104
▁he	-105
la	-106
iv	-107
▁as	-108
to	-109
▁E	-110
▁ha	-111
▁lo	-112
et	-113
ly	-114
aba	-115
ado	-116
ers	-117
ere	-118
▁par	-119
▁1	-120
▁I	-121
ien	-122
▁M	-123
▁las	-124
tr	-125
em	-126
▁D	-127
ero	-128
▁on	-129
▁for	-130
▁del	-131
▁=	-132
lo	-133
ij	-134
▁that	-135
ón	-136
th	-137
▁mu	-138
ith	-139
▁it	-140
io	-141
▁an	-142
▁is	-143
era	-144
▁was	-145
and	-146
▁L	-147
▁des	-148
▁cu	-149
ter	-150
res	-151
▁me	-152
ay	-153
ve	-154
ud	-155
ich	-156
od	-157
▁hab	-158
ver	-159
▁with	-160
ás	-161
ant	-162
ou	-163
ue	-164
▁so	-165
▁B	-166
▁his	-167
_,	-168
▁H	-169
um	-170
ib	-171
▁or	-172
if	-173
cho	-174
ia	-175
all	-176
▁ex	-177
▁at	-178
▁—	-179
se	-180
ec	-181
end	-182
ation	-183
ier	-184
▁como	-185
ando	-186
▁don	-187
▁by	-188
▁pro	-189
▁fr	-190
▁F	-191
ill	-192
▁R	-193
co	-194
st	-195
pe	-196
ow	-197
ada	-198
▁The	-199
ag	-200
ie	-201
▁pr	-202
▁é	-203
ido	-204
▁una	-205
▁not	-206
que	-207
▁which	-208
ess	-209
ente	-210
ist	-211
▁ent	-212
de	-213
▁más	-214
▁ar	-215
ió	-216
ijo	-217
▁man	-218
ap	-219
▁tr	-220
▁st	-221
▁am	-222
ac	-223
▁ver	-224
go	-225
▁G	-226
▁pu	-227
...	-228
▁á	-229
ies	-230
▁j	-231
ht	-232
▁si	-233
▁N	-234
ust	-235
▁aqu	-236
▁“	-237
▁ac	-238
▁ser	-239
▁yo	-240
Qu	-241
▁sin	-242
ell	-243
ard	-244
bre	-245
▁co	-246
▁ch	-247
za	-248
ug	-249
▁2	-250
▁(	-251
▁all	-252
▁V	-253
▁ab	-254
mo	-255
▁para	-256
ke	-257
up	-258
▁Y	-259
▁W	-260
ity	-261
▁ap	-262
uld	-263
▁O	-264
▁gr	-265
▁po	-266
▁[	-267
▁sus	-268
ca	-269
▁mi	-270
▁--	-271
und	-272
▁había	-273
ge	-274
ens	-275
ast	-276
▁¿	-277
ían	-278
▁sh	-279
▁ad	-280
ore	-281
▁are	-282
ort	-283
▁"	-284
▁had	-285
▁tod	-286
ost	-287
▁from	-288
ios	-289
ora	-290
▁do	-291
ose	-292
ond	-293
▁have	-294
▁im	-295
▁ne	-296
ect	-297
▁¡	-298
ome	-299
▁k	-300
▁has	-301
▁era	-302
▁te	-303
ord	-304
▁per	-305
cia	-306
▁3	-307
ción	-308
▁ten	-309
iz	-310
aban	-311
ate	-312
ure	-313
per	-314
▁him	-315
ot	-316
pl	-317
▁they	-318
▁but	-319
▁their	-320
▁señ	-321
ient	-322
▁were	-323
▁this	-324
gu	-325
▁who	-326
ight	-327
▁dec	-328
▁dis	-329
▁pas	-330
▁él	-331
uen	-332
▁car	-333
ain	-334
▁cas	-335
=,	-336
ong	-337
▁res	-338
▁we	-339
▁tan	-340
erm	-341
ould	-342
po	-343
▁pre	-344
▁cab	-345
▁Qu	-346
▁fu	-347
ive	-348
ther	-349
▁J	-350
▁them	-351
ven	-352
ian	-353
▁ni	-354
ida	-355
▁mis	-356
añ	-357
▁one	-358
sel	-359
▁comp	-360
▁go	-361
▁cont	-362
▁aquel	-363
ced	-364
▁ro	-365
▁us	-366
▁Th	-367
uest	-368
ados	-369
▁4	-370
▁sal	-371
cer	-372
ese	-373
ame	-374
▁El	-375
ces	-376
ind	-377
ié	-378
▁men	-379
▁San	-380
av	-381
br	-382
ment	-383
▁En	-384
ach	-385
ante	-386
▁cons	-387
▁todo	-388
▁esc	-389
▁pero	-390
reat	-391
ult	-392
idad	-393
▁up	-394
ide	-395
no	-396
me	-397
oso	-398
ones	-399
unt	-400
▁mal	-401
able	-402
▁bo	-403
▁ot	-404
so	-405
elo	-406
▁much	-407
▁lle	-408
▁cr	-409
bl	-410
ine	-411
ish	-412
out	-413
▁ve	-414
aj	-415
ice	-416
án	-417
ied	-418
osa	-419
par	-420
iendo	-421
▁U	-422
▁sol	-423
pt	-424
ire	-425
oug	-426
ino	-427
▁fe	-428
▁mo	-429
ura	-430
igo	-431
▁«	-432
ance	-433
ally	-434
▁buen	-435
▁em	-436
ok	-437
hed	-438
ous	-439
ores	-440
▁ag	-441
▁cl	-442
ign	-443
eg	-444
ase	-445
ans	-446
ely	-447
ence	-448
uc	-449
ión	-450
▁cor	-451
▁sab	-452
▁af	-453
▁you	-454
int	-455
▁been	-456
▁ll	-457
▁mar	-458
ak	-459
No	-460
ild	-461
▁kn	-462
▁part	-463
ip	-464
▁imp	-465
ijote	-466
▁Quijote	-467
▁An	-468
▁sa	-469
oc	-470
▁porque	-471
▁Sancho	-472
▁there	-473
▁ella	-474
▁esto	-475
les	-476
▁wor	-477
▁son	-478
▁its	-479
ica	-480
▁bien	-481
▁tra	-482
▁col	-483
▁her	-484
ath	-485
▁pres	-486
▁more	-487
los	-488
_.	-489
ico	-490
▁ya	-491
▁op	-492
ub	-493
▁señor	-494
ple	-495
._,	-496
ma	-497
▁vol	-498
▁pod	-499
és	-500
▁It	-501
ld	-502
▁ra	-503
our	-504
ated	-505
▁esp	-506
....	-507
ile	-508
wn	-509
ars	-510
▁tim	-511
arse	-512
▁rep	-513
▁may	-514
▁enc	-515
ras	-516
▁sp	-517
ales	-518
▁ob	-519
▁alg	-520
aron	-521
rit	-522
▁can	-523
▁Al	-524
ber	-525
▁z	-526
▁No	-527
▁In	-528
ings	-529
fer	-530
▁mad	-531
▁hom	-532
low	-533
▁Un	-534
▁out	-535
▁fa	-536
ara	-537
▁ca	-538
▁know	-539
vo	-540
ran	-541
ten	-542
▁todos	-543
ree	-544
▁De	-545
▁cam	-546
ndo	-547
▁pla	-548
▁would	-549
ún	-550
▁some	-551
ions	-552
▁La	-553
.”	-554
▁ven	-555
▁when	-556
▁pe	-557
▁pl	-558
▁fir	-559
art	-560
jo	-561
▁qué	-562
pond	-563
▁great	-564
▁inter	-565
▁muy	-566
ater	-567
▁van	-568
iento	-569
ina	-570
jos	-571
ary	-572
tain	-573
▁will	-574
arn	-575
▁tu	-576
adas	-577
amente	-578
iera	-579
encia	-580
pre	-581
▁vo	-582
self	-583
▁He	-584
ña	-585
▁gu	-586
▁rec	-587
▁mer	-588
ién	-589
._	-590
▁mí	-591
orm	-592
enta	-593
▁Ch	-594
▁dos	-595
ents	-596
▁pal	-597
▁tw	-598
ana	-599
▁only	-600
one	-601
ays	-602
ren	-603
eros	-604
▁18	-605
ph	-606
▁5	-607
▁cre	-608
gr	-609
▁lib	-610
uel	-611
▁form	-612
ical	-613
▁into	-614
ito	-615
▁vis	-616
▁cuando	-617
▁sent	-618
▁tal	-619
ivers	-620
▁dej	-621
ento	-622
▁than	-623
▁así	-624
▁time	-625
itt	-626
▁esta	-627
▁what	-628
▁este	-629
▁ins	-630
▁entre	-631
ious	-632
▁inc	-633
▁pens	-634
ang	-635
▁sobre	-636
▁desp	-637
▁ed	-638
▁ever	-639
ike	-640
▁er	-641
▁dar	-642
▁otr	-643
ita	-644
jer	-645
ound	-646
ual	-647
▁tien	-648
ga	-649
che	-650
▁estaba	-651
▁first	-652
▁dijo	-653
▁Ar	-654
uct	-655
▁grand	-656
ass	-657
usted	-658
▁sub	-659
eces	-660
▁thoug	-661
eth	-662
▁ti	-663
▁oc	-664
▁br	-665
ías	-666
ite	-667
▁deb	-668
▁mor	-669
ert	-670
ible	-671
▁rel	-672
ieron	-673
▁Se	-674
▁inf	-675
▁rem	-676
ín	-677
▁|	-678
▁other	-679
ll	-680
▁conf	-681
▁str	-682
ues	-683
▁Es	-684
▁ye	-685
▁our	-686
ff	-687
ved	-688
ves	-689
ias	-690
ís	-691
▁pers	-692
ys	-693
.,	-694
ck	-695
▁algun	-696
ros	-697
▁caball	-698
▁val	-699
▁if	-700
▁Dios	-701
▁ant	-702
ena	-703
▁she	-704
).	-705
og	-706
▁und	-707
der	-708
ont	-709
dad	-710
▁these	-711
ful	-712
▁But	-713
▁otro	-714
▁decir	-715
▁stud	-716
▁hay	-717
▁pos	-718
ER	-719
ano	-720
▁usted	-721
vent	-722
▁tem	-723
▁casa	-724
▁»	-725
▁aun	-726
▁prim	-727
▁over	-728
▁K	-729
ory	-730
▁ma	-731
uego	-732
00	-733
ne	-734
▁pued	-735
den	-736
▁cual	-737
ador	-738
▁And	-739
▁very	-740
ial	-741
▁desc	-742
▁my	-743
▁llam	-744
uestra	-745
▁cap	-746
▁most	-747
pp	-748
▁med	-749
ular	-750
uth	-751
▁Wh	-752
▁should	-753
amb	-754
▁ind	-755
▁lleg	-756
▁hacer	-757
▁any	-758
fore	-759
zo	-760
err	-761
ors	-762
va	-763
Nota	-764
illa	-765
▁ah	-766
chool	-767
ugh	-768
dijo	-769
▁8	-770
pr	-771
▁9	-772
are	-773
▁gen	-774
▁tenía	-775
ific	-776
▁mujer	-777
iese	-778
▁about	-779
,”	-780
mos	-781
pondió	-782
▁quien	-783
▁fin	-784
▁int	-785
▁aquella	-786
.--	-787
urn	-788
ations	-789
▁qued	-790
▁nat	-791
▁how	-792
▁hum	-793
▁cal	-794
▁6	-795
▁habl	-796
▁Pero	-797
▁otra	-798
▁mat	-799
ject	-800
ño	-801
gan	-802
».	-803
cio	-804
ciones	-805
▁non	-806
▁donde	-807
land	-808
▁ó	-809
ario	-810
▁exp	-811
▁As	-812
red	-813
osas	-814
▁mon	-815
led	-816
▁two	-817
use	-818
HE	-819
var	-820
ués	-821
▁12	-822
▁poco	-823
iversity	-824
ks	-825
ife	-826
cha	-827
ise	-828
idos	-829
ition	-830
adre	-831
ánd	-832
thing	-833
▁dest	-834
▁sac	-835
ble	-836
▁fuer	-837
▁serv	-838
▁parec	-839
▁ext	-840
▁act	-841
▁sino	-842
▁every	-843
—,	-844
Qué	-845
▁also	-846
▁long	-847
▁vida	-848
▁som	-849
▁quer	-850
▁Mar	-851
igu	-852
▁pues	-853
▁hasta	-854
ittle	-855
▁child	-856
▁made	-857
▁said	-858
amos	-859
▁hombre	-860
▁merced	-861
▁verdad	-862
istr	-863
▁upon	-864
▁mundo	-865
▁bar	-866
ward	-867
▁like	-868
▁7	-869
▁[1	-870
▁see	-871
eza	-872
▁St	-873
ons	-874
ima	-875
▁prop	-876
▁tom	-877
),	-878
ress	-879
▁tiem	-880
car	-881
▁vez	-882
▁aquí	-883
▁could	-884
anto	-885
▁mucho	-886
ep	-887
▁fal	-888
ja	-889
▁gro	-890
▁even	-891
igh	-892
▁'	-893
▁qui	-894
▁call	-895
tem	-896
▁15	-897
▁mes	-898
imo	-899
▁está	-900
ern	-901
▁nos	-902
▁mir	-903
▁little	-904
=:	-905
▁16	-906
▁ir	-907
▁dif	-908
.]	-909
▁gra	-910
▁reg	-911
▁Pro	-912
▁those	-913
▁ojos	-914
orn	-915
ished	-916
▁good	-917
▁prin	-918
▁entr	-919
▁such	-920
▁after	-921
▁University	-922
▁bl	-923
eral	-924
▁fam	-925
ict	-926
▁allí	-927
we	-928
▁many	-929
▁spe	-930
vid	-931
▁then	-932
▁bel	-933
az	-934
fic	-935
▁comm	-936
▁dem	-937
antes	-938
▁het	-939
▁cosa	-940
▁mismo	-941
▁hac	-942
▁día	-943
ace	-944
bres	-945
▁dist	-946
▁thro	-947
ness	-948
▁lar	-949
illo	-950
▁herm	-951
▁mej	-952
usto	-953
▁again	-954
▁now	-955
oria	-956
cre	-957
ene	-958
▁bu	-959
▁todas	-960
▁sí	-961
▁11	-962
ft	-963
▁10	-964
▁ho	-965
erse	-966
las	-967
▁13	-968
▁while	-969
rib	-970
cas	-971
cur	-972
ender	-973
▁THE	-974
▁ta	-975
▁work	-976
▁cer	-977
▁This	-978
ry	-979
▁menos	-980
▁tiene	-981
▁aunque	-982
▁ib	-983
ural	-984
▁art	-985
▁bet	-986
▁dev	-987
▁sur	-988
pos	-989
iar	-990
▁tiempo	-991
uz	-992
▁19	-993
mente	-994
▁prof	-995
▁school	-996
iente	-997
▁well	-998
▁bec	-999
▁les	-1000
▁ref	-1001
▁must	-1002
ather	-1003
▁eso	-1004
▁mas	-1005
ér	-1006
man	-1007
ucation	-1008
▁years	-1009
▁vuestra	-1010
ambién	-1011
▁ide	-1012
▁life	-1013
▁himself	-1014
▁before	-1015
zón	-1016
ON	-1017
▁gran	-1018
▁fue	-1019
▁word	-1020
▁dich	-1021
▁Con	-1022
▁viv	-1023
ew	-1024
ños	-1025
esto	-1026
▁present	-1027
▁Eng	-1028
▁hand	-1029
▁own	-1030
▁bus	-1031
ómo	-1032
gar	-1033
ever	-1034
▁where	-1035
ink	-1036
▁cur	-1037
▁person	-1038
AN	-1039
▁uno	-1040
▁Los	-1041
respondió	-1042
▁Ana	-1043
▁old	-1044
▁pare	-1045
▁learn	-1046
Que	-1047
▁den	-1048
▁seg	-1049
▁adm	-1050
▁did	-1051
▁hon	-1052
▁hist	-1053
▁just	-1054
ior	-1055
▁dic	-1056
ío	-1057
▁ale	-1058
ave	-1059
ily	-1060
▁otros	-1061
▁Des	-1062
▁mem	-1063
▁habían	-1064
▁far	-1065
zas	-1066
▁Don	-1067
pect	-1068
▁vie	-1069
▁ahora	-1070
▁señora	-1071
▁amor	-1072
▁toda	-1073
▁being	-1074
▁tanto	-1075
▁princi	-1076
the	-1077
▁Com	-1078
imiento	-1079
▁--¡	-1080
▁ret	-1081
▁nada	-1082
own	-1083
▁Mag	-1084
ick	-1085
▁14	-1086
ates	-1087
ract	-1088
▁sea	-1089
cl	-1090
▁your	-1091
▁under	-1092
▁di	-1093
▁bro	-1094
▁fol	-1095
▁después	-1096
uer	-1097
ctor	-1098
▁To	-1099
ustr	-1100
▁met	-1101
ex	-1102
uch	-1103
da	-1104
▁mil	-1105
age	-1106
▁volv	-1107
▁ci	-1108
▁muer	-1109
ught	-1110
unto	-1111
▁teach	-1112
ólo	-1113
▁cond	-1114
▁nue	-1115
▁cosas	-1116
▁hub	-1117
cul	-1118
anza	-1119
IN	-1120
cept	-1121
----	-1122
▁mejor	-1123
▁through	-1124
OR	-1125
erv	-1126
▁dese	-1127
umn	-1128
▁arch	-1129
▁found	-1130
irt	-1131
▁Am	-1132
▁seem	-1133
je	-1134
endo	-1135
▁inst	-1136
▁thought	-1137
gen	-1138
."	-1139
wh	-1140
fect	-1141
ación	-1142
▁mano	-1143
▁ellos	-1144
empre	-1145
▁antes	-1146
▁end	-1147
▁Fr	-1148
▁sm	-1149
▁var	-1150
▁aquell	-1151
abl	-1152
ws	-1153
▁palab	-1154
▁pes	-1155
pa	-1156
ato	-1157
▁Reg	-1158
▁parte	-1159
▁ru	-1160
▁acc	-1161
ierra	-1162
inu	-1163
old	-1164
▁Por	-1165
▁también	-1166
plic	-1167
▁cent	-1168
ele	-1169
▁say	-1170
▁ph	-1171
▁pon	-1172
als	-1173
▁Magistr	-1174
▁algo	-1175
ev	-1176
let	-1177
bar	-1178
▁mod	-1179
▁veces	-1180
▁Magistral	-1181
uit	-1182
▁bra	-1183
▁hij	-1184
▁podía	-1185
▁sé	-1186
▁hor	-1187
iss	-1188
▁pol	-1189
izo	-1190
▁du	-1191
gra	-1192
▁llev	-1193
mas	-1194
▁vent	-1195
▁buena	-1196
oman	-1197
ough	-1198
▁segu	-1199
iel	-1200
ined	-1201
ES	-1202
arly	-1203
▁siempre	-1204
▁without	-1205
esa	-1206
ities	-1207
truct	-1208
▁eran	-1209
cias	-1210
▁sim	-1211
cal	-1212
ures	-1213
▁17	-1214
itar	-1215
ature	-1216
▁luego	-1217
vis	-1218
▁education	-1219
ude	-1220
ider	-1221
▁cuer	-1222
▁Go	-1223
▁read	-1224
▁da	-1225
▁same	-1226
▁quis	-1227
!...	-1228
▁hall	-1229
▁dicho	-1230
▁iba	-1231
EN	-1232
iter	-1233
▁high	-1234
▁noche	-1235
ció	-1236
▁cast	-1237
▁os	-1238
▁giv	-1239
▁might	-1240
▁va	-1241
-1	-1242
ung	-1243
ton	-1244
ído	-1245
▁días	-1246
bo	-1247
▁look	-1248
ade	-1249
▁way	-1250
ement	-1251
yo	-1252
emos	-1253
ula	-1254
▁obs	-1255
▁let	-1256
ze	-1257
cos	-1258
▁perd	-1259
▁puede	-1260
0,	-1261
iste	-1262
▁conv	-1263
selves	-1264
med	-1265
▁day	-1266
▁cour	-1267
alo	-1268
II	-1269
eng	-1270
lect	-1271
ades	-1272
▁pa	-1273
▁still	-1274
▁set	-1275
gunt	-1276
ron	-1277
▁esper	-1278
▁caballero	-1279
ugar	-1280
til	-1281
▁use	-1282
ría	-1283
▁gl	-1284
uda	-1285
▁fl	-1286
cial	-1287
unca	-1288
▁tres	-1289
▁cabeza	-1290
urch	-1291
qué	-1292
ba	-1293
omp	-1294
▁hecho	-1295
▁new	-1296
itect	-1297
▁though	-1298
ya	-1299
ajo	-1300
ius	-1301
▁agu	-1302
▁follow	-1303
ked	-1304
▁pat	-1305
▁children	-1306
▁lev	-1307
▁pass	-1308
ins	-1309
tas	-1310
▁So	-1311
▁decía	-1312
▁writ	-1313
AR	-1314
essor	-1315
▁haber	-1316
igos	-1317
▁eff	-1318
uso	-1319
▁sil	-1320
ty	-1321
ata	-1322
▁They	-1323
ped	-1324
,"	-1325
▁tro	-1326
▁def	-1327
icio	-1328
▁padre	-1329
ledge	-1330
▁best	-1331
▁cada	-1332
▁come	-1333
▁book	-1334
ela	-1335
▁aw	-1336
▁bod	-1337
▁inv	-1338
▁make	-1339
▁tierra	-1340
ged	-1341
▁Á	-1342
▁X	-1343
▁ge	-1344
iones	-1345
▁ass	-1346
▁otras	-1347
ull	-1348
ñas	-1349
▁Par	-1350
▁eng	-1351
▁things	-1352
▁due	-1353
zar	-1354
iend	-1355
usta	-1356
▁came	-1357
▁think	-1358
ived	-1359
▁ech	-1360
▁exam	-1361
ack	-1362
▁relig	-1363
▁trans	-1364
▁lab	-1365
istian	-1366
op	-1367
▁han	-1368
other	-1369
ándose	-1370
▁nuest	-1371
men	-1372
▁(_	-1373
▁We	-1374
▁tú	-1375
▁amigo	-1376
▁Sp	-1377
read	-1378
ts	-1379
▁desde	-1380
icos	-1381
ently	-1382
9,	-1383
na	-1384
▁import	-1385
yes	-1386
▁pie	-1387
▁real	-1388
▁never	-1389
cess	-1390
▁visto	-1391
ola	-1392
▁last	-1393
▁too	-1394
entes	-1395
▁appe	-1396
▁mom	-1397
▁corr	-1398
▁har	-1399
▁tengo	-1400
▁Pa	-1401
arle	-1402
2,	-1403
Es	-1404
illas	-1405
ndole	-1406
hap	-1407
por	-1408
una	-1409
▁prom	-1410
cog	-1411
▁supp	-1412
▁class	-1413
1,	-1414
▁acab	-1415
▁each	-1416
ientos	-1417
▁Le	-1418
▁alma	-1419
ierto	-1420
▁rev	-1421
cter	-1422
▁pur	-1423
AL	-1424
iga	-1425
atro	-1426
▁coun	-1427
▁natural	-1428
of	-1429
▁25	-1430
▁adv	-1431
▁lugar	-1432
ouse	-1433
8,	-1434
wer	-1435
ways	-1436
▁consider	-1437
!”	-1438
erra	-1439
▁alguna	-1440
▁estas	-1441
iénd	-1442
antos	-1443
▁manos	-1444
▁repres	-1445
▁however	-1446
▁knowledge	-1447
▁fo	-1448
idas	-1449
▁mind	-1450
este	-1451
▁die	-1452
▁soy	-1453
▁contr	-1454
enas	-1455
ised	-1456
▁pow	-1457
▁años	-1458
▁fuera	-1459
▁ped	-1460
uro	-1461
ened	-1462
esta	-1463
irit	-1464
▁peo	-1465
eno	-1466
▁hal	-1467
▁lat	-1468
▁anim	-1469
▁imag	-1470
▁suc	-1471
▁For	-1472
▁down	-1473
ines	-1474
▁another	-1475
▁God	-1476
▁Que	-1477
aut	-1478
▁guard	-1479
0.	-1480
7,	-1481
jas	-1482
▁nom	-1483
▁find	-1484
▁less	-1485
▁att	-1486
▁saber	-1487
ief	-1488
ería	-1489
▁amo	-1490
▁dice	-1491
▁enem	-1492
▁build	-1493
▁poss	-1494
▁sólo	-1495
zos	-1496
▁dra	-1497
▁Prof	-1498
ism	-1499
ral	-1500
▁general	-1501
lar	-1502
▁div	-1503
ating	-1504
ually	-1505
ning	-1506
▁fact	-1507
▁bur	-1508
eras	-1509
▁emp	-1510
▁tor	-1511
▁voz	-1512
▁Yo	-1513
▁muchos	-1514
▁mand	-1515
be	-1516
ving	-1517
fe	-1518
ret	-1519
▁dur	-1520
El	-1521
▁ol	-1522
▁plan	-1523
ila	-1524
▁et	-1525
ither	-1526
▁hizo	-1527
ri	-1528
The	-1529
con	-1530
erc	-1531
ken	-1532
▁tak	-1533
▁tre	-1534
ición	-1535
ying	-1536
AT	-1537
▁Ví	-1538
▁get	-1539
anc	-1540
▁Cam	-1541
▁place	-1542
!--	-1543
ivo	-1544
pro	-1545
5,	-1546
▁publ	-1547
▁tener	-1548
ira	-1549
tos	-1550
▁Víctor	-1551
En	-1552
▁sy	-1553
▁sat	-1554
▁always	-1555
▁continu	-1556
▁fig	-1557
▁interest	-1558
▁themselves	-1559
▁cost	-1560
▁contra	-1561
adr	-1562
▁among	-1563
oy	-1564
isa	-1565
aint	-1566
▁ay	-1567
▁madre	-1568
▁order	-1569
▁cuanto	-1570
▁fué	-1571
▁manera	-1572
▁people	-1573
éis	-1574
▁vi	-1575
▁head	-1576
ner	-1577
ween	-1578
▁espe	-1579
▁princip	-1580
De	-1581
▁Or	-1582
▁pobre	-1583
▁vos	-1584
3,	-1585
elf	-1586
▁puer	-1587
▁sido	-1588
▁neces	-1589
▁pec	-1590
▁nunca	-1591
tros	-1592
ella	-1593
▁Man	-1594
▁muchas	-1595
▁hacía	-1596
▁whole	-1597
▁architect	-1598
4,	-1599
ples	-1600
▁num	-1601
▁off	-1602
ale	-1603
▁fel	-1604
cause	-1605
▁chara	-1606
áb	-1607
irc	-1608
hip	-1609
part	-1610
▁lan	-1611
▁because	-1612
esía	-1613
▁beg	-1614
▁ple	-1615
▁rest	-1616
.)	-1617
enc	-1618
▁Aug	-1619
▁here	-1620
▁infl	-1621
▁virt	-1622
varo	-1623
try	-1624
▁alm	-1625
inos	-1626
▁--¿	-1627
▁point	-1628
▁develo	-1629
▁ke	-1630
▁een	-1631
imos	-1632
▁ning	-1633
▁Si	-1634
ches	-1635
▁doña	-1636
edo	-1637
▁three	-1638
▁dé	-1639
▁hombres	-1640
ár	-1641
▁world	-1642
▁between	-1643
du	-1644
iado	-1645
▁hace	-1646
▁20	-1647
▁Ál	-1648
arde	-1649
ason	-1650
ction	-1651
ít	-1652
▁pue	-1653
iloso	-1654
▁sc	-1655
▁exc	-1656
antas	-1657
▁small	-1658
▁quería	-1659
fr	-1660
lish	-1661
▁pag	-1662
▁cora	-1663
▁character	-1664
▁sold	-1665
bra	-1666
▁Álvaro	-1667
inal	-1668
vern	-1669
▁take	-1670
▁right	-1671
2.	-1672
icia	-1673
haps	-1674
inar	-1675
▁Z	-1676
▁Est	-1677
▁incl	-1678
▁Professor	-1679
3.	-1680
1.	-1681
ismo	-1682
▁yet	-1683
ps	-1684
zó	-1685
yers	-1686
thers	-1687
▁estar	-1688
▁grande	-1689
▁parece	-1690
▁mov	-1691
6,	-1692
ils	-1693
ood	-1694
adie	-1695
ides	-1696
▁fac	-1697
entos	-1698
▁human	-1699
▁traba	-1700
▁dire	-1701
▁vuel	-1702
▁OF	-1703
rá	-1704
Por	-1705
less	-1706
uras	-1707
▁back	-1708
amiento	-1709
▁resp	-1710
▁side	-1711
▁nothing	-1712
au	-1713
▁nec	-1714
ancia	-1715
▁cono	-1716
▁ans	-1717
▁ment	-1718
▁cuerpo	-1719
oles	-1720
▁din	-1721
▁blan	-1722
▁words	-1723
aña	-1724
erman	-1725
▁once	-1726
▁design	-1727
▁represent	-1728
▁dij	-1729
▁Roman	-1730
▁camino	-1731
▁Cu	-1732
▁abs	-1733
▁cómo	-1734
▁inde	-1735
▁turn	-1736
nde	-1737
▁arm	-1738
▁both	-1739
▁does	-1740
▁kind	-1741
▁compr	-1742
▁enton	-1743
▁pud	-1744
llustr	-1745
▁young	-1746
▁conoc	-1747
▁against	-1748
▁parecía	-1749
▁aquellos	-1750
▁unos	-1751
▁itself	-1752
▁English	-1753
▁students	-1754
igan	-1755
▁nor	-1756
▁Chr	-1757
▁cura	-1758
ger	-1759
▁pap	-1760
▁pel	-1761
▁give	-1762
▁called	-1763
▁conse	-1764
▁friend	-1765
▁Regenta	-1766
els	-1767
erst	-1768
ited	-1769
tern	-1770
yed	-1771
▁aut	-1772
round	-1773
▁cielo	-1774
▁fur	-1775
▁mayor	-1776
ution	-1777
▁carr	-1778
etusta	-1779
ges	-1780
▁estos	-1781
én	-1782
ics	-1783
▁Cap	-1784
▁show	-1785
▁tend	-1786
▁vest	-1787
row	-1788
▁add	-1789
▁quiero	-1790
olog	-1791
▁door	-1792
▁need	-1793
uv	-1794
ír	-1795
ison	-1796
▁algún	-1797
ange	-1798
▁bat	-1799
ester	-1800
▁port	-1801
▁según	-1802
▁differ	-1803
ál	-1804
iene	-1805
▁bes	-1806
▁modo	-1807
▁cat	-1808
▁orig	-1809
▁certain	-1810
gos	-1811
▁der	-1812
▁There	-1813
6.	-1814
arl	-1815
▁away	-1816
▁beaut	-1817
▁pregunt	-1818
rad	-1819
ury	-1820
▁ev	-1821
ense	-1822
▁later	-1823
ND	-1824
ium	-1825
Pero	-1826
▁muerte	-1827
7.	-1828
arr	-1829
▁Lo	-1830
▁neg	-1831
▁sec	-1832
▁ante	-1833
▁body	-1834
▁hijo	-1835
▁given	-1836
▁levant	-1837
truction	-1838
.--_	-1839
ives	-1840
▁power	-1841
mp	-1842
ontr	-1843
▁medio	-1844
▁puesto	-1845
=.	-1846
▁30	-1847
▁Su	-1848
oss	-1849
▁DE	-1850
ilosoph	-1851
▁spirit	-1852
zz	-1853
dos	-1854
icas	-1855
▁Pet	-1856
▁water	-1857
▁Vetusta	-1858
▁country	-1859
cu	-1860
ste	-1861
▁oy	-1862
▁dol	-1863
▁sup	-1864
año	-1865
for	-1866
▁sabía	-1867
▁appear	-1868
▁cant	-1869
▁main	-1870
▁organ	-1871
fa	-1872
ientes	-1873
?”	-1874
blo	-1875
tar	-1876
osed	-1877
▁few	-1878
▁Gree	-1879
Illustr	-1880
4.	-1881
grim	-1882
▁fav	-1883
▁light	-1884
Illustration	-1885
oh	-1886
ants	-1887
ende	-1888
▁mos	-1889
2]	-1890
IS	-1891
ices	-1892
ended	-1893
▁result	-1894
▁entonces	-1895
itu	-1896
▁wa	-1897
king	-1898
bor	-1899
allo	-1900
▁fort	-1901
ecía	-1902
▁dio	-1903
rench	-1904
▁land	-1905
▁estaban	-1906
▁Tr	-1907
▁caus	-1908
▁subject	-1909
▁av	-1910
▁put	-1911
▁----	-1912
▁When	-1913
▁avent	-1914
▁encontr	-1915
▁His	-1916
ments	-1917
▁open	-1918
8.	-1919
▁exist	-1920
▁shall	-1921
can	-1922
▁Era	-1923
▁moral	-1924
5.	-1925
iles	-1926
▁bre	-1927
ative	-1928
▁satis	-1929
▁Las	-1930
▁vio	-1931
ength	-1932
▁care	-1933
ulo	-1934
▁«¡	-1935
▁ste	-1936
wards	-1937
▁nadie	-1938
▁dom	-1939
ortun	-1940
adores	-1941
▁mur	-1942
▁ter	-1943
▁hora	-1944
▁enter	-1945
aje	-1946
entro	-1947
▁mucha	-1948
jar	-1949
ired	-1950
▁circ	-1951
▁influen	-1952
mm	-1953
úl	-1954
pla	-1955
▁dou	-1956
▁rece	-1957
▁grandes	-1958
ably	-1959
ething	-1960
▁column	-1961
▁ty	-1962
▁exper	-1963
▁often	-1964
9.	-1965
▁cort	-1966
▁seen	-1967
▁used	-1968
▁escud	-1969
▁became	-1970
▁Re	-1971
▁past	-1972
▁pract	-1973
▁palabras	-1974
▁says	-1975
▁French	-1976
▁partic	-1977
▁ese	-1978
reg	-1979
▁jo	-1980
itos	-1981
▁Col	-1982
ierno	-1983
▁digo	-1984
noyers	-1985
▁cuatro	-1986
Sí	-1987
▁22	-1988
anar	-1989
▁zij	-1990
ining	-1991
▁auth	-1992
▁cuenta	-1993
3]	-1994
▁fuese	-1995
▁Desnoyers	-1996
ted	-1997
▁known	-1998
▁pueblo	-1999
anos	-2000
imes	-2001
▁All	-2002
▁left	-2003
▁whose	-2004
ald	-2005
▁arr	-2006
▁fre	-2007
▁lim	-2008
▁On	-2009
ased	-2010
inas	-2011
▁pron	-2012
▁tarde	-2013
▁course	-2014
▁entend	-2015
ched	-2016
ances	-2017
▁adel	-2018
▁wall	-2019
▁four	-2020
La	-2021
▁Ad	-2022
▁win	-2023
▁red	-2024
cis	-2025
udo	-2026
▁sign	-2027
▁famil	-2028
ety	-2029
orr	-2030
ting	-2031
▁until	-2032
ichigan	-2033
▁hablar	-2034
▁puerta	-2035
ix	-2036
ether	-2037
ñor	-2038
▁sci	-2039
▁heart	-2040
not	-2041
▁Is	-2042
form	-2043
▁punto	-2044
.»	-2045
?--	-2046
ized	-2047
▁requ	-2048
▁guerra	-2049
íg	-2050
ioso	-2051
▁casi	-2052
▁dorm	-2053
ús	-2054
▁At	-2055
▁aan	-2056
▁dir	-2057
▁equ	-2058
▁whom	-2059
▁means	-2060
át	-2061
▁Do	-2062
▁Dr	-2063
ament	-2064
▁poder	-2065
▁mak	-2066
▁Fran	-2067
▁soon	-2068
▁vino	-2069
▁went	-2070
▁escrib	-2071
▁philosoph	-2072
bel	-2073
ames	-2074
ivil	-2075
▁prepar	-2076
urg	-2077
▁happ	-2078
▁reci	-2079
▁almost	-2080
▁nombre	-2081
▁Ph	-2082
ident	-2083
▁liter	-2084
▁ig	-2085
▁comen	-2086
▁demás	-2087
▁effect	-2088
▁others	-2089
▁remain	-2090
4]	-2091
▁Michigan	-2092
ól	-2093
▁na	-2094
anta	-2095
▁obl	-2096
ethod	-2097
▁terr	-2098
▁German	-2099
IT	-2100
bro	-2101
▁true	-2102
5]	-2103
▁admir	-2104
▁aquello	-2105
OS	-2106
uy	-2107
ista	-2108
ured	-2109
IC	-2110
▁cle	-2111
▁(1	-2112
▁hija	-2113
▁tras	-2114
amor	-2115
iere	-2116
▁mañ	-2117
▁perhaps	-2118
▁historia	-2119
its	-2120
▁By	-2121
▁Aqu	-2122
tained	-2123
▁Ed	-2124
ares	-2125
ately	-2126
▁primero	-2127
af	-2128
ulc	-2129
yle	-2130
▁pup	-2131
Se	-2132
▁dr	-2133
pend	-2134
▁Ferm	-2135
gg	-2136
erd	-2137
▁sch	-2138
alozz	-2139
▁capit	-2140
▁house	-2141
estalozz	-2142
▁something	-2143
últ	-2144
▁sk	-2145
▁mío	-2146
▁ord	-2147
▁name	-2148
▁sabe	-2149
▁extra	-2150
▁secre	-2151
▁quiere	-2152
emás	-2153
▁cla	-2154
▁mag	-2155
▁saw	-2156
leg	-2157
▁least	-2158
▁super	-2159
▁volver	-2160
cipr	-2161
ists	-2162
▁Fermín	-2163
▁reason	-2164
ulty	-2165
▁Jul	-2166
▁record	-2167
▁Mr	-2168
▁Ob	-2169
ield	-2170
ónde	-2171
▁beh	-2172
▁gre	-2173
ilidad	-2174
▁Mesía	-2175
▁diciendo	-2176
cil	-2177
▁vers	-2178
▁study	-2179
▁corazón	-2180
▁nuestro	-2181
▁disc	-2182
omo	-2183
▁pies	-2184
▁triste	-2185
▁Augusto	-2186
6]	-2187
UR	-2188
▁28	-2189
▁AND	-2190
▁env	-2191
▁eyes	-2192
cipreste	-2193
▁Pestalozz	-2194
[1	-2195
ijk	-2196
▁ce	-2197
omen	-2198
▁sto	-2199
oro	-2200
ove	-2201
▁vuest	-2202
LE	-2203
edad	-2204
▁tales	-2205
osotros	-2206
▁necess	-2207
▁public	-2208
ceed	-2209
▁Car	-2210
▁Pas	-2211
▁hel	-2212
▁Pues	-2213
▁want	-2214
▁confes	-2215
▁palabra	-2216
▁pan	-2217
▁últ	-2218
▁será	-2219
▁pasar	-2220
▁om	-2221
chos	-2222
ingu	-2223
▁days	-2224
▁thus	-2225
▁dejar	-2226
▁recog	-2227
▁min	-2228
quesa	-2229
▁become	-2230
▁object	-2231
▁daba	-2232
▁year	-2233
▁salir	-2234
asil	-2235
▁noble	-2236
▁establ	-2237
▁Arcipreste	-2238
▁Bo	-2239
▁sing	-2240
▁term	-2241
▁miedo	-2242
▁author	-2243
mon	-2244
▁cul	-2245
▁fuerza	-2246
▁grad	-2247
▁note	-2248
▁pier	-2249
▁mostr	-2250
▁comer	-2251
iest	-2252
▁esa	-2253
▁algunos	-2254
▁develop	-2255
iqu	-2256
▁Me	-2257
▁Pr	-2258
▁41	-2259
ystem	-2260
▁allá	-2261
▁orden	-2262
▁pensar	-2263
▁atre	-2264
▁Panza	-2265
▁misma	-2266
▁stand	-2267
ik	-2268
iego	-2269
▁gol	-2270
▁feel	-2271
▁gente	-2272
ime	-2273
iva	-2274
▁Pl	-2275
▁sig	-2276
▁took	-2277
▁especi	-2278
▁having	-2279
AS	-2280
IL	-2281
pir	-2282
cido	-2283
▁mol	-2284
▁sta	-2285
▁rather	-2286
▁church	-2287
aso	-2288
▁pen	-2289
▁prob	-2290
gether	-2291
▁large	-2292
▁quién	-2293
▁volunt	-2294
▁Padre	-2295
▁libro	-2296
▁return	-2297
▁success	-2298
▁Pestalozzi	-2299
7]	-2300
▁mater	-2301
▁better	-2302
▁discre	-2303
▁If	-2304
?...	-2305
▁paso	-2306
▁sigu	-2307
iéndose	-2308
ostro	-2309
▁done	-2310
▁hard	-2311
ility	-2312
umbre	-2313
▁const	-2314
▁suelo	-2315
erstand	-2316
▁caballeros	-2317
8]	-2318
ED	-2319
ez	-2320
▁29	-2321
arme	-2322
▁bal	-2323
cover	-2324
▁ofre	-2325
▁mañana	-2326
▁express	-2327
▁char	-2328
ording	-2329
▁number	-2330
▁strong	-2331
Th	-2332
ival	-2333
▁boca	-2334
▁duda	-2335
▁thing	-2336
▁Cuando	-2337
▁24	-2338
aría	-2339
▁debía	-2340
▁langu	-2341
▁quest	-2342
▁method	-2343
ecer	-2344
eric	-2345
▁trat	-2346
quiera	-2347
▁master	-2348
ets	-2349
iod	-2350
▁Ro	-2351
▁lado	-2352
▁razón	-2353
▁suced	-2354
▁40	-2355
▁Tex	-2356
▁emb	-2357
iesen	-2358
▁haci	-2359
▁enamor	-2360
▁latter	-2361
▁volvió	-2362
ierta	-2363
▁arro	-2364
▁solo	-2365
,-	-2366
▁war	-2367
ering	-2368
▁mala	-2369
▁compañ	-2370
gy	-2371
ono	-2372
▁sl	-2373
▁fra	-2374
min	-2375
atin	-2376
iment	-2377
▁system	-2378
iness	-2379
▁Ital	-2380
▁ellas	-2381
,=	-2382
xt	-2383
ird	-2384
pes	-2385
vel	-2386
Pues	-2387
irse	-2388
thic	-2389
asión	-2390
▁pelig	-2391
▁rostro	-2392
arch	-2393
▁abr	-2394
▁dat	-2395
ables	-2396
▁ciud	-2397
▁idea	-2398
▁nuevo	-2399
▁marido	-2400
▁support	-2401
bers	-2402
illi	-2403
▁jud	-2404
▁half	-2405
▁love	-2406
▁21	-2407
ians	-2408
ready	-2409
itions	-2410
▁diffic	-2411
▁adelante	-2412
▁az	-2413
ablo	-2414
itas	-2415
▁wel	-2416
▁clar	-2417
▁debe	-2418
▁sens	-2419
▁silen	-2420
▁encant	-2421
bern	-2422
ique	-2423
▁Esp	-2424
▁Tod	-2425
▁dul	-2426
▁calle	-2427
▁cin	-2428
▁libert	-2429
▁ç	-2430
eron	-2431
▁Quint	-2432
▁decor	-2433
▁sever	-2434
▁Med	-2435
▁sir	-2436
▁puso	-2437
▁respect	-2438
▁cristian	-2439
act	-2440
tes	-2441
erte	-2442
▁caso	-2443
▁above	-2444
▁taken	-2445
ours	-2446
▁enf	-2447
plied	-2448
▁lead	-2449
▁pret	-2450
▁quier	-2451
▁Gothic	-2452
▁building	-2453
ohn	-2454
aste	-2455
▁Sal	-2456
▁ign	-2457
▁soul	-2458
▁estre	-2459
▁dentro	-2460
▁aquellas	-2461
ré	-2462
▁Then	-2463
▁momento	-2464
▁respondió	-2465
9]	-2466
▁raz	-2467
▁opin	-2468
▁hubiera	-2469
.=	-2470
by	-2471
,--	-2472
▁38	-2473
pres	-2474
wing	-2475
▁Así	-2476
▁tot	-2477
▁case	-2478
▁empe	-2479
▁prov	-2480
▁luz	-2481
▁mía	-2482
iving	-2483
ention	-2484
▁death	-2485
▁speak	-2486
▁common	-2487
ric	-2488
medi	-2489
▁New	-2490
▁gusto	-2491
▁quite	-2492
▁already	-2493
ING	-2494
uan	-2495
▁lá	-2496
▁baj	-2497
▁fall	-2498
5:	-2499
Oh	-2500
des	-2501
uno	-2502
ieve	-2503
▁six	-2504
▁barb	-2505
ará	-2506
val	-2507
▁Pal	-2508
▁John	-2509
▁doub	-2510
▁Greek	-2511
▁appro	-2512
▁seems	-2513
▁England	-2514
1]	-2515
ona	-2516
óse	-2517
▁34	-2518
▁pied	-2519
ándole	-2520
▁descu	-2521
▁cierto	-2522
▁everything	-2523
Wh	-2524
yn	-2525
▁Jes	-2526
▁mot	-2527
▁ello	-2528
▁arran	-2529
▁understand	-2530
Con	-2531
inc	-2532
olo	-2533
▁sw	-2534
ques	-2535
▁Euro	-2536
▁feet	-2537
▁caballo	-2538
▁mujeres	-2539
▁nuestra	-2540
▁pi	-2541
anas	-2542
ator	-2543
iful	-2544
▁flo	-2545
▁With	-2546
▁poor	-2547
▁town	-2548
▁estud	-2549
▁Quintanar	-2550
ye	-2551
▁eene	-2552
▁tuvo	-2553
▁deter	-2554
2:	-2555
urr	-2556
alla	-2557
▁Pres	-2558
▁disp	-2559
▁donc	-2560
▁hund	-2561
▁near	-2562
▁Latin	-2563
▁mient	-2564
▁contem	-2565
▁27	-2566
▁Be	-2567
▁Cr	-2568
▁These	-2569
▁direct	-2570
abía	-2571
erme	-2572
▁suf	-2573
▁What	-2574
▁ej	-2575
▁tuv	-2576
▁pint	-2577
▁unas	-2578
▁times	-2579
isto	-2580
▁sint	-2581
▁different	-2582
▁particular	-2583
aré	-2584
uvo	-2585
▁creat	-2586
▁within	-2587
▁teaching	-2588
TER	-2589
ige	-2590
amás	-2591
asta	-2592
▁clo	-2593
▁hic	-2594
▁intel	-2595
▁animal	-2596
▁pensaba	-2597
uss	-2598
avía	-2599
▁dado	-2600
▁gent	-2601
▁hier	-2602
▁deseo	-2603
▁salud	-2604
3:	-2605
lex	-2606
Cómo	-2607
clam	-2608
ince	-2609
uelo	-2610
▁gal	-2611
▁agua	-2612
▁voor	-2613
▁somet	-2614
▁cannot	-2615
▁gobern	-2616
▁influence	-2617
▁Ya	-2618
▁cri	-2619
▁leg	-2620
▁dere	-2621
▁early	-2622
▁ideas	-2623
▁truth	-2624
▁period	-2625
gas	-2626
▁35	-2627
ling	-2628
osos	-2629
zaba	-2630
▁mus	-2631
▁bueno	-2632
▁incre	-2633
▁quiso	-2634
▁mientras	-2635
sa	-2636
▁Ex	-2637
▁—¡	-2638
ellas	-2639
▁That	-2640
▁apar	-2641
▁pase	-2642
imientos	-2643
▁parecer	-2644
urb	-2645
▁Gu	-2646
ilar	-2647
iled	-2648
loss	-2649
▁Juan	-2650
▁llor	-2651
▁Christian	-2652
Cu	-2653
inct	-2654
inea	-2655
▁pudo	-2656
▁hands	-2657
▁horas	-2658
oma	-2659
▁pra	-2660
asure	-2661
▁mere	-2662
▁llevar	-2663
▁regard	-2664
▁together	-2665
0]	-2666
ork	-2667
ást	-2668
▁lu	-2669
▁bene	-2670
▁busc	-2671
▁soci	-2672
▁sería	-2673
▁ciudad	-2674
▁matter	-2675
▁muerto	-2676
▁entender	-2677
gua	-2678
vos	-2679
enda	-2680
ered	-2681
plicó	-2682
▁Dulc	-2683
▁dign	-2684
▁oblig	-2685
▁brought	-2686
▁history	-2687
gon	-2688
ilo	-2689
rown	-2690
▁pun	-2691
▁books	-2692
▁cerca	-2693
▁poner	-2694
▁began	-2695
▁night	-2696
▁recib	-2697
▁fueron	-2698
OT	-2699
--.	-2700
▁42	-2701
ello	-2702
trás	-2703
▁sor	-2704
▁tran	-2705
ciencia	-2706
▁delante	-2707
▁Dulcinea	-2708
cup	-2709
ivid	-2710
▁sacr	-2711
▁llegó	-2712
▁since	-2713
▁School	-2714
ises	-2715
ísimo	-2716
▁venía	-2717
▁nature	-2718
▁respond	-2719
▁31	-2720
iosa	-2721
ters	-2722
▁dam	-2723
▁gave	-2724
iencia	-2725
▁begin	-2726
▁dolor	-2727
▁buscar	-2728
▁suerte	-2729
ize	-2730
▁cum	-2731
▁Basil	-2732
▁seemed	-2733
▁columns	-2734
ats	-2735
ram	-2736
▁hoy	-2737
▁nin	-2738
▁rey	-2739
▁Comen	-2740
▁dueña	-2741
▁amigos	-2742
▁36	-2743
▁Co	-2744
▁eas	-2745
▁ley	-2746
ience	-2747
ively	-2748
uesto	-2749
▁city	-2750
▁creo	-2751
▁home	-2752
▁dicen	-2753
▁remed	-2754
ination	-2755
▁persona	-2756
mej	-2757
▁191	-2758
▁gan	-2759
▁pien	-2760
▁pasado	-2761
▁tienen	-2762
▁distingu	-2763
ley	-2764
pit	-2765
▁bor	-2766
istic	-2767
▁oído	-2768
▁atrev	-2769
▁offic	-2770
▁viejo	-2771
▁indeed	-2772
--------	-2773
▁ang	-2774
▁alto	-2775
▁junt	-2776
▁acomp	-2777
▁pronto	-2778
EL	-2779
cr	-2780
imoun	-2781
▁Cast	-2782
▁ignor	-2783
▁segund	-2784
▁century	-2785
▁voluntad	-2786
»,	-2787
él	-2788
▁ut	-2789
vert	-2790
▁len	-2791
▁gener	-2792
▁separ	-2793
▁primera	-2794
4:	-2795
ION	-2796
▁hu	-2797
▁Mas	-2798
▁doubt	-2799
▁speci	-2800
▁windo	-2801
vernment	-2802
▁ill	-2803
onder	-2804
▁alegr	-2805
▁short	-2806
▁1,	-2807
▁án	-2808
▁año	-2809
▁oro	-2810
▁asked	-2811
▁treat	-2812
▁convers	-2813
▁learning	-2814
éd	-2815
bras	-2816
▁comb	-2817
▁tell	-2818
▁libros	-2819
OM	-2820
▁23	-2821
▁Ac	-2822
▁—¿	-2823
lege	-2824
cious	-2825
▁cerr	-2826
▁pros	-2827
▁comed	-2828
óm	-2829
rem	-2830
asen	-2831
culo	-2832
▁uit	-2833
lesia	-2834
▁aire	-2835
▁jamás	-2836
▁desgra	-2837
▁proper	-2838
▁perfect	-2839
▁beautiful	-2840
▁principal	-2841
bs	-2842
uck	-2843
▁fear	-2844
▁Texel	-2845
▁hacia	-2846
▁ground	-2847
▁señores	-2848
ago	-2849
cura	-2850
▁One	-2851
▁bot	-2852
▁ens	-2853
▁tir	-2854
count	-2855
illed	-2856
▁están	-2857
▁Simoun	-2858
▁antigu	-2859
▁silencio	-2860
dom	-2861
▁ju	-2862
▁Mon	-2863
▁blo	-2864
▁keep	-2865
▁perm	-2866
▁civil	-2867
▁compar	-2868
▁example	-2869
rb	-2870
tle	-2871
vas	-2872
itaba	-2873
▁acqu	-2874
▁bring	-2875
▁lejos	-2876
▁peque	-2877
▁style	-2878
▁todavía	-2879
ça	-2880
eta	-2881
▁ún	-2882
▁round	-2883
hem	-2884
onde	-2885
▁favor	-2886
▁junto	-2887
issance	-2888
▁conven	-2889
▁dinero	-2890
ha	-2891
ided	-2892
▁Ben	-2893
▁ere	-2894
▁rid	-2895
▁Span	-2896
▁band	-2897
▁desta	-2898
▁semej	-2899
▁student	-2900
▁nosotros	-2901
enaissance	-2902
▁ba	-2903
arden	-2904
▁salió	-2905
▁shell	-2906
▁schools	-2907
▁castillo	-2908
▁development	-2909
eme	-2910
cion	-2911
test	-2912
▁Todo	-2913
▁crey	-2914
▁color	-2915
▁Basilio	-2916
▁individ	-2917
▁Renaissance	-2918
▁architecture	-2919
Al	-2920
nect	-2921
uesa	-2922
▁apr	-2923
▁loco	-2924
▁autor	-2925
▁escudero	-2926
6:	-2927
▁brazos	-2928
▁father	-2929
▁second	-2930
▁following	-2931
▁sometimes	-2932
▁2.	-2933
▁37	-2934
▁ze	-2935
▁toc	-2936
▁whe	-2937
fully	-2938
itted	-2939
▁engañ	-2940
▁mesmo	-2941
▁enough	-2942
▁possible	-2943
▁especially	-2944
Yo	-2945
dy	-2946
sy	-2947
rar	-2948
▁Cl	-2949
▁Vis	-2950
▁org	-2951
▁sos	-2952
duced	-2953
ising	-2954
▁campo	-2955
▁carta	-2956
▁walls	-2957
▁suffer	-2958
OL	-2959
ute	-2960
uted	-2961
▁aún	-2962
▁nar	-2963
▁rom	-2964
ences	-2965
▁along	-2966
▁imper	-2967
▁miser	-2968
▁estado	-2969
▁llegar	-2970
▁acompañ	-2971
▁complet	-2972
OU	-2973
eda	-2974
iza	-2975
rim	-2976
▁39	-2977
▁pop	-2978
Gloss	-2979
ución	-2980
▁test	-2981
▁prove	-2982
▁Church	-2983
▁project	-2984
▁interior	-2985
CH	-2986
▁il	-2987
▁amb	-2988
▁ban	-2989
▁vac	-2990
▁fres	-2991
▁stre	-2992
▁Señor	-2993
▁going	-2994
▁media	-2995
▁olvid	-2996
▁remar	-2997
▁Europe	-2998
cía	-2999
▁CH	-3000
outh	-3001
quier	-3002
▁boys	-3003
▁rich	-3004
▁self	-3005
▁memoria	-3006
▁several	-3007
gre	-3008
ugen	-3009
▁Ten	-3010
Quién	-3011
erous	-3012
▁cara	-3013
▁front	-3014
▁entrar	-3015
▁discover	-3016
▁44	-3017
▁fil	-3018
point	-3019
▁Rome	-3020
▁dang	-3021
▁fing	-3022
▁estoy	-3023
▁tanta	-3024
▁Comenius	-3025
van	-3026
edes	-3027
▁ear	-3028
▁mel	-3029
▁sonr	-3030
encias	-3031
▁exerc	-3032
▁trabajo	-3033
▁language	-3034
▁instruction	-3035
Si	-3036
▁IN	-3037
illos	-3038
▁free	-3039
▁mean	-3040
grimas	-3041
▁resol	-3042
▁except	-3043
▁modern	-3044
Ah	-3045
RE	-3046
▁dan	-3047
▁fut	-3048
▁got	-3049
inary	-3050
▁foot	-3051
▁mesa	-3052
respond	-3053
▁answer	-3054
▁escrit	-3055
▁satisf	-3056
▁taught	-3057
▁account	-3058
▁lágrimas	-3059
▁therefore	-3060
8:	-3061
IV	-3062
ams	-3063
etas	-3064
▁Cat	-3065
▁fat	-3066
ítulo	-3067
▁tomar	-3068
▁during	-3069
das	-3070
rop	-3071
acio	-3072
▁boy	-3073
▁refer	-3074
▁razones	-3075
▁ín	-3076
atic	-3077
▁Fro	-3078
▁tus	-3079
ísima	-3080
▁vivir	-3081
oo	-3082
irs	-3083
alth	-3084
atos	-3085
▁cel	-3086
▁ham	-3087
inante	-3088
▁delic	-3089
▁hijos	-3090
▁quedó	-3091
▁sense	-3092
quently	-3093
▁friends	-3094
▁hundred	-3095
eter	-3096
▁Cor	-3097
▁éste	-3098
▁maest	-3099
▁puedo	-3100
▁Fo	-3101
eles	-3102
iano	-3103
▁fun	-3104
▁demand	-3105
partment	-3106
▁further	-3107
dul	-3108
pose	-3109
▁Ped	-3110
ument	-3111
▁face	-3112
▁tenían	-3113
▁algunas	-3114
fo	-3115
sm	-3116
áis	-3117
bles	-3118
soci	-3119
▁lig	-3120
▁sem	-3121
▁deta	-3122
▁sang	-3123
▁fuego	-3124
▁fuerte	-3125
▁partes	-3126
ho	-3127
ede	-3128
chas	-3129
ilis	-3130
trib	-3131
used	-3132
▁Fac	-3133
▁Ter	-3134
▁expl	-3135
▁wood	-3136
▁falta	-3137
▁valor	-3138
▁viene	-3139
▁various	-3140
:--	-3141
idd	-3142
▁1.	-3143
ency	-3144
▁Per	-3145
▁age	-3146
▁connect	-3147
▁attention	-3148
.’	-3149
7:	-3150
.),	-3151
dic	-3152
úbl	-3153
arla	-3154
ugenia	-3155
▁heard	-3156
▁pesar	-3157
aciones	-3158
▁question	-3159
pan	-3160
▁etc	-3161
▁mit	-3162
▁rod	-3163
erved	-3164
▁remo	-3165
▁veía	-3166
ulties	-3167
▁libre	-3168
▁morir	-3169
▁venir	-3170
▁sintió	-3171
▁hablaba	-3172
▁important	-3173
ós	-3174
—;	-3175
irk	-3176
ford	-3177
gado	-3178
▁lic	-3179
▁cabo	-3180
▁eleg	-3181
▁hold	-3182
▁surf	-3183
▁wish	-3184
asters	-3185
▁forms	-3186
▁ideal	-3187
▁suces	-3188
▁declar	-3189
etr	-3190
aces	-3191
itud	-3192
ister	-3193
itude	-3194
▁Here	-3195
▁patr	-3196
▁room	-3197
▁sugg	-3198
▁recogn	-3199
▁individual	-3200
pas	-3201
▁26	-3202
cted	-3203
enth	-3204
enty	-3205
zado	-3206
▁fla	-3207
▁law	-3208
cient	-3209
idades	-3210
▁schol	-3211
▁stone	-3212
▁desper	-3213
▁either	-3214
▁carried	-3215
▁suggest	-3216
iso	-3217
▁Ma	-3218
.=--	-3219
char	-3220
▁Una	-3221
▁Gran	-3222
▁estr	-3223
▁fund	-3224
▁Willi	-3225
▁vista	-3226
▁Visita	-3227
▁tantas	-3228
▁ocasión	-3229
▁science	-3230
▁bad	-3231
▁bast	-3232
▁cult	-3233
▁roof	-3234
▁suff	-3235
terior	-3236
▁occup	-3237
▁vuesa	-3238
▁sentía	-3239
ump	-3240
yos	-3241
▁3.	-3242
▁43	-3243
▁189	-3244
▁Roc	-3245
▁árb	-3246
ified	-3247
▁mant	-3248
▁armas	-3249
CE	-3250
ilt	-3251
enci	-3252
▁King	-3253
▁iban	-3254
▁compan	-3255
▁dispar	-3256
uto	-3257
orts	-3258
írit	-3259
▁Ind	-3260
▁Ven	-3261
▁led	-3262
ought	-3263
▁till	-3264
ishment	-3265
▁contest	-3266
AD	-3267
_;	-3268
what	-3269
▁Bar	-3270
▁nac	-3271
▁reb	-3272
▁sue	-3273
▁cuar	-3274
▁sobr	-3275
▁carne	-3276
▁creía	-3277
▁action	-3278
▁alguno	-3279
ires	-3280
iver	-3281
oted	-3282
▁gar	-3283
▁Como	-3284
▁Lord	-3285
▁amar	-3286
▁held	-3287
▁mass	-3288
▁prod	-3289
▁Petra	-3290
▁aband	-3291
▁ingen	-3292
▁length	-3293
▁4.	-3294
▁gob	-3295
▁magn	-3296
▁emplo	-3297
▁hermosa	-3298
eca	-3299
ses	-3300
oura	-3301
▁wat	-3302
▁deep	-3303
▁chief	-3304
replicó	-3305
▁simple	-3306
amientos	-3307
▁possess	-3308
▁ventura	-3309
▁followed	-3310
ash	-3311
com	-3312
▁ja	-3313
aves	-3314
cent	-3315
unic	-3316
▁bajo	-3317
▁rock	-3318
▁stra	-3319
▁suel	-3320
▁apart	-3321
uela	-3322
▁via	-3323
▁apro	-3324
▁atta	-3325
▁agrad	-3326
▁corre	-3327
▁dando	-3328
▁hermos	-3329
▁virtud	-3330
çe	-3331
aya	-3332
olv	-3333
▁hol	-3334
ached	-3335
▁Kirk	-3336
▁Julio	-3337
▁cumpl	-3338
▁inten	-3339
iéndole	-3340
▁concer	-3341
▁whether	-3342
▁original	-3343
▁intellect	-3344
In	-3345
ms	-3346
ór	-3347
eds	-3348
sta	-3349
▁Ah	-3350
eness	-3351
▁sola	-3352
▁parts	-3353
▁voces	-3354
▁procur	-3355
▁33	-3356
▁dig	-3357
▁falt	-3358
▁quit	-3359
▁cruel	-3360
▁worth	-3361
▁tantos	-3362
plo	-3363
ring	-3364
▁May	-3365
▁Nor	-3366
▁She	-3367
▁knew	-3368
▁ocup	-3369
▁sangre	-3370
▁enemigo	-3371
▁univers	-3372
!»	-3373
AM	-3374
ek	-3375
000	-3376
nal	-3377
▁bol	-3378
▁sud	-3379
ember	-3380
usias	-3381
▁former	-3382
▁llamaba	-3383
QU	-3384
usc	-3385
inta	-3386
▁sun	-3387
▁meet	-3388
▁trad	-3389
▁vend	-3390
ements	-3391
▁causa	-3392
▁cover	-3393
▁buenas	-3394
day	-3395
now	-3396
▁Vd	-3397
tras	-3398
aring	-3399
▁lost	-3400
▁ofic	-3401
▁told	-3402
ígilis	-3403
▁members	-3404
▁aventura	-3405
ages	-3406
ille	-3407
umni	-3408
very	-3409
▁cho	-3410
▁nov	-3411
▁clér	-3412
▁grow	-3413
▁obra	-3414
▁view	-3415
▁France	-3416
▁buenos	-3417
▁ninguna	-3418
cot	-3419
eso	-3420
lor	-3421
▁Po	-3422
▁cuid	-3423
▁live	-3424
▁pena	-3425
▁zijn	-3426
casion	-3427
▁perder	-3428
▁servir	-3429
▁necessary	-3430
nas	-3431
íos	-3432
▁5.	-3433
cont	-3434
like	-3435
▁rap	-3436
▁ren	-3437
▁Marc	-3438
▁cele	-3439
▁efect	-3440
▁españ	-3441
▁intro	-3442
▁llama	-3443
▁pecho	-3444
▁mother	-3445
▁Kirkcal	-3446
▁President	-3447
▁XX	-3448
ondo	-3449
vers	-3450
▁oír	-3451
▁Hall	-3452
▁encu	-3453
▁viol	-3454
▁igual	-3455
▁impos	-3456
▁longer	-3457
onio	-3458
▁died	-3459
▁else	-3460
▁eres	-3461
▁full	-3462
umento	-3463
▁acord	-3464
▁debajo	-3465
▁invent	-3466
▁Eugenia	-3467
▁espírit	-3468
IG	-3469
_.,	-3470
ane	-3471
pic	-3472
rán	-3473
▁6.	-3474
▁aj	-3475
▁añ	-3476
oney	-3477
▁West	-3478
▁dark	-3479
▁help	-3480
▁post	-3481
▁cuales	-3482
▁purpose	-3483
▁anything	-3484
▁according	-3485
9:	-3486
alt	-3487
gun	-3488
▁45	-3489
aria	-3490
cios	-3491
▁How	-3492
▁squ	-3493
▁vin	-3494
icient	-3495
▁conce	-3496
▁state	-3497
inación	-3498
▁around	-3499
▁moment	-3500
▁primer	-3501
▁peligro	-3502
▁Rocinante	-3503
ham	-3504
uesta	-3505
▁pict	-3506
▁Había	-3507
▁París	-3508
▁duque	-3509
▁señal	-3510
▁viendo	-3511
▁hermano	-3512
▁posible	-3513
▁profess	-3514
▁Frígilis	-3515
▁strength	-3516
▁Kirkcaldy	-3517
▁continued	-3518
erg	-3519
mar	-3520
▁dil	-3521
▁pad	-3522
▁vig	-3523
▁white	-3524
▁España	-3525
▁tranqu	-3526
▁menester	-3527
cy	-3528
▁Af	-3529
▁mud	-3530
▁acaso	-3531
▁allow	-3532
▁youth	-3533
▁doncella	-3534
ank	-3535
pet	-3536
▁2,	-3537
▁185	-3538
small	-3539
▁Fern	-3540
▁phys	-3541
▁Pedro	-3542
▁además	-3543
▁making	-3544
▁struct	-3545
▁Faculty	-3546
▁vuestro	-3547
ship	-3548
umbr	-3549
▁err	-3550
▁fif	-3551
▁opp	-3552
▁cere	-3553
▁tard	-3554
▁Obdul	-3555
▁leave	-3556
▁mitad	-3557
▁diablo	-3558
▁includ	-3559
▁andante	-3560
▁pareció	-3561
Ad	-3562
RO	-3563
▁190	-3564
▁able	-3565
▁nave	-3566
▁alcan	-3567
▁conqu	-3568
aven	-3569
pués	-3570
▁ado	-3571
▁pus	-3572
▁tío	-3573
preci	-3574
▁Arch	-3575
▁inqu	-3576
▁suyo	-3577
▁escuch	-3578
▁frente	-3579
▁abandon	-3580
ENT	-3581
itan	-3582
teen	-3583
▁187	-3584
▁Cas	-3585
▁gall	-3586
▁limp	-3587
hedral	-3588
▁entra	-3589
çia	-3590
gypt	-3591
▁hid	-3592
▁mozo	-3593
▁rode	-3594
▁cinco	-3595
▁origin	-3596
▁service	-3597
wo	-3598
air	-3599
ubl	-3600
pens	-3601
well	-3602
ories	-3603
tered	-3604
▁asom	-3605
▁pasó	-3606
▁vict	-3607
▁Egypt	-3608
▁State	-3609
▁nueva	-3610
▁vieja	-3611
▁celebr	-3612
▁pupils	-3613
▁William	-3614
▁descubr	-3615
▁material	-3616
▁buildings	-3617
▁gobernador	-3618
▁pensamiento	-3619
aga	-3620
▁mús	-3621
▁ome	-3622
▁rub	-3623
▁sed	-3624
▁vul	-3625
atory	-3626
▁Este	-3627
▁mill	-3628
▁waar	-3629
▁marav	-3630
▁vault	-3631
▁Jesuit	-3632
▁comple	-3633
▁Obdulia	-3634
▁surface	-3635
▁contento	-3636
ux	-3637
▁Ge	-3638
onía	-3639
uous	-3640
▁Gra	-3641
▁che	-3642
ality	-3643
▁looked	-3644
0:	-3645
bros	-3646
ispo	-3647
▁bas	-3648
▁sle	-3649
▁Esto	-3650
▁caer	-3651
▁dejó	-3652
▁dije	-3653
▁evid	-3654
erican	-3655
though	-3656
▁honor	-3657
▁inform	-3658
▁alegría	-3659
▁duquesa	-3660
Non	-3661
aja	-3662
une	-3663
ards	-3664
▁dre	-3665
▁sel	-3666
▁sla	-3667
▁voy	-3668
▁diez	-3669
▁ense	-3670
ization	-3671
▁pasaba	-3672
▁content	-3673
▁greater	-3674
▁occasion	-3675
▁correspond	-3676
1:	-3677
bol	-3678
tre	-3679
anes	-3680
▁Sch	-3681
▁cruz	-3682
▁leer	-3683
ending	-3684
eneral	-3685
▁apenas	-3686
▁Francis	-3687
▁popular	-3688
▁probably	-3689
▁established	-3690
AP	-3691
vi	-3692
▁Of	-3693
orre	-3694
osque	-3695
▁ayud	-3696
▁creer	-3697
▁entró	-3698
▁oppos	-3699
▁prote	-3700
▁nearly	-3701
▁siendo	-3702
▁Spanish	-3703
▁familia	-3704
—.	-3705
zen	-3706
onte	-3707
yond	-3708
▁dep	-3709
▁inm	-3710
ieran	-3711
iller	-3712
where	-3713
▁acom	-3714
▁earl	-3715
▁instr	-3716
▁prest	-3717
▁behind	-3718
▁transl	-3719
▁twenty	-3720
yl	-3721
iew	-3722
agan	-3723
▁Cab	-3724
▁Del	-3725
▁Non	-3726
▁You	-3727
▁dut	-3728
▁rob	-3729
▁alde	-3730
▁haya	-3731
ilgrim	-3732
▁Todos	-3733
▁andar	-3734
▁concl	-3735
▁escap	-3736
▁Camila	-3737
▁enferm	-3738
▁barbero	-3739
▁parecían	-3740
▁government	-3741
▁literature	-3742
▁principles	-3743
It	-3744
Est	-3745
lem	-3746
ánt	-3747
▁cf	-3748
idor	-3749
migo	-3750
▁jur	-3751
▁orn	-3752
▁paz	-3753
▁fine	-3754
▁mont	-3755
▁scar	-3756
▁situ	-3757
▁alone	-3758
▁special	-3759
▁religious	-3760
ST	-3761
ala	-3762
iet	-3763
nos	-3764
▁[2	-3765
riba	-3766
▁arte	-3767
▁fish	-3768
▁hubo	-3769
teenth	-3770
▁close	-3771
▁earth	-3772
▁toward	-3773
▁gobierno	-3774
CT	-3775
ág	-3776
ging	-3777
rado	-3778
▁cub	-3779
▁five	-3780
▁Anita	-3781
▁Mancha	-3782
▁learned	-3783
▁pudiera	-3784
▁Department	-3785
05	-3786
hib	-3787
gress	-3788
▁Esta	-3789
▁cuán	-3790
▁carry	-3791
▁dulce	-3792
▁estuv	-3793
▁offer	-3794
ilip	-3795
lack	-3796
utos	-3797
▁Not	-3798
▁bij	-3799
guntó	-3800
▁desd	-3801
▁torn	-3802
▁agora	-3803
▁march	-3804
▁voice	-3805
▁future	-3806
▁hambre	-3807
▁towards	-3808
cel	-3809
dio	-3810
uis	-3811
▁Para	-3812
▁pere	-3813
▁seis	-3814
▁largo	-3815
▁muest	-3816
▁higher	-3817
▁lengua	-3818
▁believe	-3819
▁training	-3820
▁hermosura	-3821
ned	-3822
side	-3823
▁ahí	-3824
▁cen	-3825
▁tam	-3826
erías	-3827
uerdo	-3828
▁Ella	-3829
▁aver	-3830
▁fama	-3831
▁fore	-3832
▁frío	-3833
▁list	-3834
▁brazo	-3835
▁della	-3836
▁podría	-3837
▁capital	-3838
▁comenzó	-3839
▁espíritu	-3840
▁haciendo	-3841
!,	-3842
bed	-3843
mer	-3844
énd	-3845
▁II	-3846
▁wr	-3847
▁ama	-3848
▁pid	-3849
▁werd	-3850
▁faith	-3851
▁habit	-3852
▁pupil	-3853
▁value	-3854
▁affect	-3855
▁change	-3856
▁resist	-3857
▁enemigos	-3858
ths	-3859
yer	-3860
▁32	-3861
▁Ca	-3862
▁cos	-3863
▁run	-3864
elijk	-3865
▁cans	-3866
▁nego	-3867
▁thou	-3868
▁Santa	-3869
▁polit	-3870
▁welke	-3871
itution	-3872
▁Porque	-3873
▁belong	-3874
▁living	-3875
▁manner	-3876
▁really	-3877
▁succeed	-3878
▁teachers	-3879
''	-3880
pen	-3881
▁''	-3882
inte	-3883
▁cay	-3884
▁desh	-3885
▁ladr	-3886
iertos	-3887
▁Luego	-3888
▁claro	-3889
▁hacen	-3890
▁ruido	-3891
▁tembl	-3892
▁villa	-3893
▁seguro	-3894
▁turned	-3895
su	-3896
▁fá	-3897
▁«¿	-3898
orio	-3899
▁Dom	-3900
▁Tom	-3901
▁Vir	-3902
▁spo	-3903
tains	-3904
▁atra	-3905
ically	-3906
▁Paula	-3907
▁appar	-3908
▁field	-3909
▁lower	-3910
▁money	-3911
▁sound	-3912
▁taste	-3913
▁women	-3914
▁beauty	-3915
▁histor	-3916
room	-3917
rote	-3918
tead	-3919
ulos	-3920
▁Sus	-3921
▁fij	-3922
selmo	-3923
tempt	-3924
▁ende	-3925
ission	-3926
▁After	-3927
▁embar	-3928
▁makes	-3929
▁negro	-3930
▁llaman	-3931
▁placed	-3932
▁proble	-3933
▁hubiese	-3934
▁windows	-3935
▁expression	-3936
6-	-3937
nes	-3938
zco	-3939
ompe	-3940
seau	-3941
▁Sir	-3942
▁air	-3943
iting	-3944
ouses	-3945
▁chap	-3946
▁punt	-3947
iously	-3948
▁manif	-3949
▁precis	-3950
▁Italian	-3951
▁instead	-3952
▁written	-3953
▁Br	-3954
▁[3	-3955
▁top	-3956
ellen	-3957
ology	-3958
▁next	-3959
▁ésta	-3960
▁clear	-3961
▁culpa	-3962
▁beyond	-3963
▁versos	-3964
▁enamorado	-3965
OW	-3966
RI	-3967
ler	-3968
▁Arg	-3969
▁Let	-3970
▁tab	-3971
antly	-3972
▁Thus	-3973
▁devo	-3974
▁gust	-3975
▁horr	-3976
▁final	-3977
▁forth	-3978
ousseau	-3979
▁passed	-3980
Lo	-3981
ript	-3982
▁dél	-3983
▁Paco	-3984
cience	-3985
▁start	-3986
▁gentle	-3987
▁observ	-3988
▁promet	-3989
▁querer	-3990
▁appoint	-3991
▁American	-3992
▁pensamientos	-3993
uf	-3994
!».	-3995
▁Ap	-3996
▁oí	-3997
sula	-3998
▁eye	-3999
▁inh	-4000
▁maj	-4001
▁vec	-4002
decía	-4003
irely	-4004
▁Doña	-4005
▁From	-4006
▁suya	-4007
▁Spain	-4008
▁cause	-4009
▁deste	-4010
▁pocos	-4011
▁woman	-4012
▁efecto	-4013
▁myself	-4014
▁prison	-4015
▁single	-4016
▁attempt	-4017
▁species	-4018
▁received	-4019
uj	-4020
col	-4021
boso	-4022
imas	-4023
that	-4024
istas	-4025
▁Burg	-4026
▁murm	-4027
▁acost	-4028
▁force	-4029
▁Christ	-4030
▁consist	-4031
▁profund	-4032
▁nuestros	-4033
ua	-4034
▁Mu	-4035
arán	-4036
▁lad	-4037
arios	-4038
▁evil	-4039
▁públ	-4040
▁cross	-4041
▁group	-4042
▁accept	-4043
▁immedi	-4044
▁locura	-4045
▁llevaba	-4046
▁entirely	-4047
▁superior	-4048
▁construction	-4049
8-	-4050
▁[4	-4051
orme	-4052
▁188	-4053
▁hur	-4054
▁sha	-4055
ening	-4056
lands	-4057
▁Some	-4058
▁educ	-4059
▁llen	-4060
▁abajo	-4061
▁envid	-4062
▁gradu	-4063
▁peace	-4064
▁Anselmo	-4065
▁Rousseau	-4066
▁andantes	-4067
▁sufficient	-4068
ply	-4069
▁cut	-4070
elled	-4071
▁añad	-4072
▁tent	-4073
▁blanco	-4074
▁espada	-4075
▁Después	-4076
▁preguntó	-4077
gó	-4078
III	-4079
ases	-4080
ebel	-4081
▁Now	-4082
▁ard	-4083
▁jug	-4084
▁ocho	-4085
▁tomó	-4086
▁meses	-4087
▁venta	-4088
▁pueden	-4089
▁remark	-4090
▁secret	-4091
▁command	-4092
1-	-4093
Ya	-4094
▁-	-4095
wij	-4096
acer	-4097
olas	-4098
otes	-4099
▁Hen	-4100
▁god	-4101
▁pul	-4102
▁san	-4103
icios	-4104
▁felt	-4105
▁gain	-4106
▁play	-4107
▁canón	-4108
▁exact	-4109
▁revol	-4110
▁Toboso	-4111
▁family	-4112
▁Regents	-4113
▁industr	-4114
▁teacher	-4115
▁terrible	-4116
▁desgracia	-4117
▁developed	-4118
yr	-4119
ips	-4120
umb	-4121
rary	-4122
▁COR	-4123
▁bed	-4124
▁faç	-4125
▁cama	-4126
▁corn	-4127
▁sand	-4128
▁emper	-4129
▁story	-4130
▁temple	-4131
▁Froebel	-4132
▁distinguished	-4133
cito	-4134
qués	-4135
ules	-4136
▁Sen	-4137
▁ess	-4138
▁faz	-4139
agani	-4140
▁abund	-4141
▁joven	-4142
▁paint	-4143
▁conmigo	-4144
▁surround	-4145
2-	-4146
An	-4147
cour	-4148
▁cit	-4149
▁why	-4150
while	-4151
▁fire	-4152
▁pain	-4153
▁added	-4154
▁adopt	-4155
▁demas	-4156
▁repet	-4157
▁Isagani	-4158
▁Marcelo	-4159
▁erected	-4160
▁ninguno	-4161
▁ornament	-4162
▁caballería	-4163
,[	-4164
uta	-4165
abor	-4166
ocke	-4167
▁Ang	-4168
▁cav	-4169
▁dió	-4170
▁lay	-4171
mouth	-4172
usion	-4173
visor	-4174
▁acud	-4175
▁alta	-4176
▁dead	-4177
▁spec	-4178
▁chang	-4179
▁labor	-4180
▁sueño	-4181
▁expect	-4182
▁conduct	-4183
▁impress	-4184
▁contempl	-4185
▁presencia	-4186
9-	-4187
To	-4188
cor	-4189
cto	-4190
rag	-4191
▁7.	-4192
▁Gr	-4193
alle	-4194
iers	-4195
imed	-4196
ross	-4197
▁186	-4198
▁als	-4199
▁ros	-4200
▁unf	-4201
ienda	-4202
inaba	-4203
▁Lleg	-4204
▁Madr	-4205
▁malo	-4206
▁ones	-4207
ousand	-4208
▁infin	-4209
▁arriba	-4210
▁esposa	-4211
▁similar	-4212
▁composed	-4213
▁position	-4214
▁necesidad	-4215
▁principio	-4216
▁interesting	-4217
onz	-4218
son	-4219
▁Sí	-4220
irst	-4221
ivos	-4222
▁low	-4223
▁swe	-4224
iales	-4225
inado	-4226
ision	-4227
▁lect	-4228
iertas	-4229
▁pecado	-4230
▁placer	-4231
▁mention	-4232
▁familiar	-4233
mes	-4234
tro	-4235
▁AR	-4236
with	-4237
▁Ann	-4238
▁hue	-4239
▁méd	-4240
oured	-4241
▁sust	-4242
▁vari	-4243
▁desire	-4244
▁detrás	-4245
▁tenido	-4246
▁conocer	-4247
▁gracias	-4248
ah	-4249
irl	-4250
enza	-4251
inda	-4252
unci	-4253
▁ton	-4254
▁tri	-4255
ellos	-4256
endía	-4257
▁deal	-4258
▁niet	-4259
▁becom	-4260
▁enseñ	-4261
▁horiz	-4262
▁obras	-4263
▁viaje	-4264
▁llegado	-4265
▁Provisor	-4266
▁presente	-4267
▁thousand	-4268
):	-4269
rada	-4270
▁inj	-4271
clamó	-4272
▁hope	-4273
▁Pompe	-4274
▁hemos	-4275
▁sides	-4276
▁único	-4277
▁prefer	-4278
▁proved	-4279
▁mayores	-4280
▁Fernando	-4281
▁extraord	-4282
▁intención	-4283
yd	-4284
ét	-4285
ery	-4286
tra	-4287
▁Bu	-4288
▁[5	-4289
▁fi	-4290
▁Lot	-4291
cción	-4292
eless	-4293
iddle	-4294
▁Paul	-4295
▁flow	-4296
▁repe	-4297
▁Madrid	-4298
▁wonder	-4299
▁batalla	-4300
▁liberal	-4301
▁protest	-4302
▁sentido	-4303
▁libertad	-4304
▁siquiera	-4305
▁philosophy	-4306
?"	-4307
ody	-4308
grit	-4309
irle	-4310
▁Lib	-4311
▁Pla	-4312
▁Rev	-4313
▁Tra	-4314
▁sit	-4315
▁aten	-4316
▁base	-4317
▁flat	-4318
▁line	-4319
▁black	-4320
▁disim	-4321
▁pensó	-4322
▁sabes	-4323
▁sospe	-4324
▁College	-4325
▁reading	-4326
▁Ab	-4327
▁[6	-4328
▁[7	-4329
What	-4330
▁aus	-4331
▁pay	-4332
ional	-4333
▁esas	-4334
▁mort	-4335
▁salt	-4336
▁summ	-4337
▁built	-4338
▁quiet	-4339
▁nuevas	-4340
▁árboles	-4341
▁thoughts	-4342
4-	-4343
cen	-4344
ony	-4345
rup	-4346
▁47	-4347
brar	-4348
iesa	-4349
jaba	-4350
▁fab	-4351
▁tap	-4352
▁desn	-4353
▁hear	-4354
▁lack	-4355
uction	-4356
▁Locke	-4357
▁dónde	-4358
▁subst	-4359
▁podían	-4360
▁quiera	-4361
▁social	-4362
▁iglesia	-4363
▁señoras	-4364
▁greatest	-4365
▁authority	-4366
▁beginning	-4367
cado	-4368
omas	-4369
▁ook	-4370
▁syn	-4371
▁won	-4372
arles	-4373
aving	-4374
esque	-4375
iling	-4376
▁camb	-4377
▁ejer	-4378
▁esos	-4379
atures	-4380
itable	-4381
▁estim	-4382
▁ready	-4383
▁alegre	-4384
▁dejaba	-4385
▁destro	-4386
▁determ	-4387
▁square	-4388
▁describ	-4389
▁maestro	-4390
▁remedio	-4391
▁personas	-4392
▁religion	-4393
AB	-4394
_.]	-4395
iny	-4396
nen	-4397
▁ST	-4398
▁id	-4399
▁je	-4400
cles	-4401
jado	-4402
oner	-4403
poco	-4404
▁coc	-4405
▁cra	-4406
▁ful	-4407
▁lie	-4408
...--	-4409
▁abra	-4410
▁daar	-4411
▁imit	-4412
▁vale	-4413
endido	-4414
▁Ahora	-4415
▁figur	-4416
▁pasos	-4417
▁Además	-4418
▁discur	-4419
▁formed	-4420
▁sentir	-4421
▁ancient	-4422
▁frances	-4423
▁difficult	-4424
▁practical	-4425
aco	-4426
bla	-4427
vil	-4428
way	-4429
ensa	-4430
igas	-4431
pped	-4432
▁ago	-4433
▁sie	-4434
▁wid	-4435
ertas	-4436
uring	-4437
ustom	-4438
▁fell	-4439
▁gana	-4440
▁peor	-4441
ughter	-4442
▁break	-4443
▁comes	-4444
▁emple	-4445
▁grave	-4446
▁impro	-4447
▁hacían	-4448
▁provin	-4449
▁delight	-4450
▁derecho	-4451
▁usually	-4452
▁remember	-4453
▁soldados	-4454
▁somewhat	-4455
Me	-4456
erk	-4457
get	-4458
ush	-4459
ager	-4460
atas	-4461
burg	-4462
erve	-4463
esen	-4464
▁Rom	-4465
eroso	-4466
▁bend	-4467
▁priv	-4468
▁weak	-4469
vernor	-4470
▁eight	-4471
▁grant	-4472
▁sight	-4473
▁works	-4474
cientos	-4475
▁gentes	-4476
▁height	-4477
preguntó	-4478
▁querido	-4479
,’	-4480
ósito	-4481
▁send	-4482
▁sufr	-4483
▁querr	-4484
▁sacar	-4485
▁Teresa	-4486
▁blanca	-4487
▁contin	-4488
▁encima	-4489
▁filled	-4490
▁gloria	-4491
▁oficio	-4492
▁morning	-4493
▁afterwards	-4494
",	-4495
wa	-4496
xo	-4497
áron	-4498
▁wal	-4499
▁zap	-4500
ecido	-4501
▁kept	-4502
▁king	-4503
▁prud	-4504
▁stat	-4505
▁infer	-4506
▁occur	-4507
▁papel	-4508
▁space	-4509
▁merely	-4510
_)	-4511
sh	-4512
érm	-4513
▁EN	-4514
crib	-4515
▁Sin	-4516
▁nie	-4517
▁rig	-4518
▁vag	-4519
aldas	-4520
▁Pers	-4521
▁affa	-4522
▁clos	-4523
▁fair	-4524
▁laid	-4525
▁type	-4526
▁While	-4527
▁amiga	-4528
▁sombr	-4529
ational	-4530
▁aprove	-4531
▁deseos	-4532
▁memory	-4533
▁veinte	-4534
▁vulgar	-4535
▁despert	-4536
▁remains	-4537
▁generally	-4538
SE	-4539
uw	-4540
abe	-4541
amp	-4542
eft	-4543
bard	-4544
orge	-4545
rich	-4546
útil	-4547
▁mez	-4548
▁wis	-4549
ators	-4550
▁camp	-4551
▁zich	-4552
▁apret	-4553
▁cases	-4554
▁humor	-4555
▁plaza	-4556
▁pienso	-4557
▁volvía	-4558
▁signific	-4559
▁aventuras	-4560
▁condition	-4561
▁appearance	-4562
.—	-4563
ava	-4564
bas	-4565
cón	-4566
ker	-4567
mor	-4568
ume	-4569
▁Em	-4570
iaba	-4571
▁dud	-4572
▁lin	-4573
zando	-4574
▁bond	-4575
▁caut	-4576
▁slow	-4577
▁aquél	-4578
▁natur	-4579
▁traía	-4580
▁Hellen	-4581
▁adonde	-4582
▁quitar	-4583
▁General	-4584
▁feeling	-4585
▁Marquesa	-4586
▁appeared	-4587
▁construct	-4588
▁conciencia	-4589
Tr	-4590
▁LA	-4591
▁Te	-4592
arte	-4593
▁cad	-4594
▁cog	-4595
▁cop	-4596
▁thr	-4597
iland	-4598
uliar	-4599
▁cuya	-4600
▁mark	-4601
▁mira	-4602
atever	-4603
▁Queen	-4604
▁acerc	-4605
▁rapid	-4606
▁verde	-4607
▁Castle	-4608
▁associ	-4609
▁seguir	-4610
▁Lotario	-4611
▁fortuna	-4612
▁reached	-4613
▁pleasure	-4614
▁published	-4615
7-	-4616
tea	-4617
▁46	-4618
aded	-4619
arlo	-4620
ming	-4621
▁Tal	-4622
▁dim	-4623
▁emo	-4624
▁ras	-4625
▁sep	-4626
▁vet	-4627
culpt	-4628
ivity	-4629
ática	-4630
▁sure	-4631
▁trav	-4632
▁James	-4633
▁absol	-4634
▁crown	-4635
▁notic	-4636
▁perro	-4637
▁consol	-4638
▁Francia	-4639
▁finally	-4640
▁vestido	-4641
▁principle	-4642
IR	-4643
UL	-4644
And	-4645
erl	-4646
isl	-4647
rep	-4648
ugg	-4649
▁Sh	-4650
▁Veg	-4651
▁fer	-4652
▁jue	-4653
▁capt	-4654
▁hers	-4655
▁larg	-4656
▁pend	-4657
▁rico	-4658
▁Const	-4659
▁Custo	-4660
▁estra	-4661
▁golpe	-4662
▁dormir	-4663
▁figura	-4664
▁honest	-4665
▁padres	-4666
▁series	-4667
▁tienes	-4668
▁neither	-4669
▁although	-4670
▁intellectual	-4671
aqu	-4672
▁Ag	-4673
▁LE	-4674
amil	-4675
into	-4676
oric	-4677
over	-4678
uble	-4679
▁ask	-4680
▁Amor	-4681
▁decl	-4682
▁symp	-4683
▁Saint	-4684
▁franc	-4685
▁hours	-4686
▁music	-4687
isation	-4688
▁easily	-4689
▁gracia	-4690
▁indign	-4691
▁sombra	-4692
▁último	-4693
▁perdido	-4694
▁Custodio	-4695
▁peculiar	-4696
▁thinking	-4697
▁conditions	-4698
0-	-4699
As	-4700
íf	-4701
hel	-4702
rol	-4703
▁8.	-4704
▁Ni	-4705
bert	-4706
ingo	-4707
izar	-4708
jero	-4709
▁Tem	-4710
ieved	-4711
orted	-4712
▁cord	-4713
▁diam	-4714
▁hero	-4715
▁thin	-4716
ciendo	-4717
▁doing	-4718
▁lives	-4719
▁poeta	-4720
▁reach	-4721
▁tried	-4722
▁verse	-4723
▁alumni	-4724
▁assist	-4725
▁compla	-4726
▁cuento	-4727
▁perform	-4728
▁determin	-4729
▁practice	-4730
▁quisiera	-4731
▁sacrific	-4732
But	-4733
ift	-4734
jes	-4735
cher	-4736
ullo	-4737
▁100	-4738
▁ata	-4739
▁bit	-4740
endió	-4741
▁adiv	-4742
▁encer	-4743
▁extre	-4744
▁fondo	-4745
▁habla	-4746
▁triun	-4747
▁August	-4748
▁fellow	-4749
▁profes	-4750
▁taking	-4751
▁replied	-4752
▁personal	-4753
▁experience	-4754
▁represented	-4755
OD	-4756
ea	-4757
eld	-4758
len	-4759
upt	-4760
itor	-4761
▁--«	-4762
▁gaz	-4763
▁tur	-4764
allow	-4765
asing	-4766
ienen	-4767
▁barr	-4768
▁doct	-4769
▁grup	-4770
▁verg	-4771
▁amist	-4772
▁darle	-4773
▁lived	-4774
▁retir	-4775
▁upper	-4776
atedral	-4777
▁amores	-4778
▁circum	-4779
▁desped	-4780
▁pastor	-4781
▁points	-4782
▁Pilgrim	-4783
▁feature	-4784
▁entusias	-4785
▁progress	-4786
▁scholars	-4787
He	-4788
_:	-4789
Rev	-4790
iro	-4791
▁[8	-4792
chen	-4793
idge	-4794
orta	-4795
ulas	-4796
▁III	-4797
▁sum	-4798
▁alar	-4799
▁anda	-4800
▁miró	-4801
▁niña	-4802
ressed	-4803
▁heeft	-4804
▁stood	-4805
▁vamos	-4806
▁Nature	-4807
▁Vegall	-4808
▁criado	-4809
▁habéis	-4810
▁espaldas	-4811
.[	-4812
Ay	-4813
--_	-4814
ERS	-4815
bos	-4816
▁My	-4817
▁[9	-4818
guas	-4819
mmar	-4820
ocup	-4821
onda	-4822
▁Sat	-4823
▁aim	-4824
▁cañ	-4825
▁deg	-4826
▁ran	-4827
▁vió	-4828
aster	-4829
ellig	-4830
ianza	-4831
iguió	-4832
itive	-4833
onzal	-4834
▁avis	-4835
▁girl	-4836
▁ejerc	-4837
▁tenga	-4838
eración	-4839
▁ningún	-4840
▁provid	-4841
adamente	-4842
▁desdich	-4843
▁regular	-4844
▁segundo	-4845
▁Vegallana	-4846
▁cristiano	-4847
▁importance	-4848
GE	-4849
jó	-4850
ím	-4851
ote	-4852
ared	-4853
▁[11	-4854
▁sad	-4855
▁tas	-4856
arnos	-4857
inter	-4858
quent	-4859
▁born	-4860
▁byen	-4861
▁hues	-4862
emente	-4863
▁habrá	-4864
▁plain	-4865
▁ánimo	-4866
▁vetust	-4867
▁covered	-4868
▁noticia	-4869
▁compañía	-4870
▁verdadero	-4871
3-	-4872
Ch	-4873
).=	-4874
bal	-4875
▁05	-4876
▁Ros	-4877
▁[12	-4878
▁[13	-4879
▁[14	-4880
▁[15	-4881
▁alc	-4882
▁big	-4883
▁dor	-4884
▁glo	-4885
▁CHAP	-4886
▁Scot	-4887
▁dome	-4888
▁firm	-4889
▁intr	-4890
amento	-4891
▁Every	-4892
▁damas	-4893
▁dueño	-4894
▁encar	-4895
▁honra	-4896
▁mirar	-4897
▁surpr	-4898
▁veras	-4899
▁Ronzal	-4900
▁actual	-4901
▁dieron	-4902
▁giving	-4903
▁juntos	-4904
▁seguía	-4905
▁venido	-4906
▁virtue	-4907
▁quedaba	-4908
▁opportun	-4909
▁gradually	-4910
irm	-4911
tic	-4912
yas	-4913
▁Mo	-4914
▁rr	-4915
acho	-4916
ajas	-4917
▁184	-4918
▁Hol	-4919
▁[16	-4920
cioso	-4921
ishop	-4922
▁Bien	-4923
▁alem	-4924
▁edad	-4925
▁nerv	-4926
▁país	-4927
▁spot	-4928
▁térm	-4929
▁casas	-4930
▁difer	-4931
▁ocult	-4932
iración	-4933
▁llamar	-4934
▁venían	-4935
▁vuelto	-4936
▁collect	-4937
▁mirando	-4938
▁opinion	-4939
▁cualquier	-4940
ijd	-4941
jet	-4942
▁dí	-4943
Page	-4944
heid	-4945
ueno	-4946
▁Ale	-4947
▁dit	-4948
▁nam	-4949
▁rib	-4950
mento	-4951
▁bear	-4952
▁heav	-4953
▁mult	-4954
▁sort	-4955
▁west	-4956
▁wide	-4957
▁queda	-4958
▁correr	-4959
▁escond	-4960
▁proceed	-4961
▁reflect	-4962
▁Education	-4963
▁costumbre	-4964
▁faculties	-4965
▁particularly	-4966
▁characteristic	-4967
ué	-4968
-1:	-4969
ben	-4970
wor	-4971
cape	-4972
eren	-4973
omet	-4974
▁Yet	-4975
▁gén	-4976
▁sen	-4977
esper	-4978
ieres	-4979
unted	-4980
▁enjo	-4981
▁late	-4982
▁unif	-4983
▁atrás	-4984
▁destr	-4985
▁deten	-4986
▁echar	-4987
▁lecho	-4988
▁sculpt	-4989
▁animals	-4990
▁applied	-4991
▁details	-4992
▁herself	-4993
▁quieres	-4994
▁instinct	-4995
".	-4996
ET	-4997
iç	-4998
—”	-4999
fía	-5000
rav	-5001
cely	-5002
cons	-5003
ándo	-5004
▁CON	-5005
▁Har	-5006
▁See	-5007
▁pic	-5008
▁smo	-5009
anzas	-5010
atern	-5011
quién	-5012
▁Cour	-5013
▁asno	-5014
▁cuad	-5015
▁marr	-5016
▁qual	-5017
▁rule	-5018
▁talk	-5019
▁leído	-5020
▁persu	-5021
▁quick	-5022
▁muchach	-5023
▁respons	-5024
▁tiempos	-5025
▁Capítulo	-5026
▁canónigo	-5027
▁connected	-5028
Des	-5029
▁TO	-5030
fuer	-5031
iate	-5032
work	-5033
▁Mor	-5034
▁arg	-5035
▁juz	-5036
▁lla	-5037
▁soñ	-5038
▁yer	-5039
ongue	-5040
▁sala	-5041
▁sean	-5042
antine	-5043
▁event	-5044
▁lleno	-5045
▁cierta	-5046
▁letter	-5047
▁pobres	-5048
▁Pompeyo	-5049
▁highest	-5050
▁society	-5051
▁pensando	-5052
▁propósito	-5053
AC	-5054
omm	-5055
tom	-5056
vol	-5057
▁3,	-5058
▁48	-5059
igar	-5060
▁Ply	-5061
▁cod	-5062
▁veo	-5063
ATION	-5064
▁crim	-5065
▁grew	-5066
▁pasa	-5067
▁road	-5068
Review	-5069
itting	-5070
▁Their	-5071
▁adorn	-5072
▁dilig	-5073
▁pocas	-5074
▁recon	-5075
▁solem	-5076
▁cuarto	-5077
▁dispos	-5078
▁growth	-5079
▁propia	-5080
▁senses	-5081
▁Jesuits	-5082
▁classes	-5083
▁independ	-5084
▁returned	-5085
▁esperanza	-5086
▁succeeded	-5087
!"	-5088
óg	-5089
▁Ig	-5090
▁Oz	-5091
▁XV	-5092
crit	-5093
irty	-5094
▁Acc	-5095
▁fix	-5096
▁rum	-5097
▁zoo	-5098
avera	-5099
ching	-5100
graph	-5101
ondon	-5102
▁bran	-5103
▁ejem	-5104
▁grat	-5105
▁obed	-5106
istory	-5107
▁bound	-5108
▁mouth	-5109
▁suele	-5110
iciones	-5111
▁Grange	-5112
▁Ozores	-5113
▁cuello	-5114
▁sudden	-5115
▁esperar	-5116
▁llegaba	-5117
▁trouble	-5118
▁distinct	-5119
▁instance	-5120
▁ordinary	-5121
▁subjects	-5122
Ar	-5123
Do	-5124
kn	-5125
Aqu	-5126
urd	-5127
▁QU	-5128
▁Ath	-5129
▁Cre	-5130
▁gem	-5131
▁pet	-5132
adero	-5133
alled	-5134
ibles	-5135
tress	-5136
▁cien	-5137
▁daño	-5138
▁haga	-5139
▁ridí	-5140
▁seas	-5141
idente	-5142
tonces	-5143
▁gives	-5144
▁invol	-5145
▁pueda	-5146
▁rucio	-5147
▁verle	-5148
ception	-5149
▁depend	-5150
▁favour	-5151
▁obscur	-5152
▁presto	-5153
▁CHAPTER	-5154
▁criados	-5155
▁secreto	-5156
▁sympath	-5157
▁complete	-5158
▁conocido	-5159
▁employed	-5160
▁examples	-5161
▁siguiente	-5162
▁considered	-5163
5-	-5164
eo	-5165
fl	-5166
ço	-5167
-1]	-5168
EST	-5169
ama	-5170
cks	-5171
inó	-5172
pus	-5173
see	-5174
ajes	-5175
▁Eso	-5176
▁alt	-5177
▁dro	-5178
Señor	-5179
ertos	-5180
iende	-5181
itary	-5182
ospit	-5183
yster	-5184
▁Port	-5185
▁arms	-5186
▁glor	-5187
▁Italy	-5188
▁neigh	-5189
▁visit	-5190
▁----=,	-5191
▁miraba	-5192
▁mister	-5193
▁dientes	-5194
▁process	-5195
▁imaginación	-5196
ID	-5197
cht	-5198
got	-5199
uci	-5200
uls	-5201
▁9.	-5202
▁Jo	-5203
tood	-5204
▁fan	-5205
▁cler	-5206
▁cree	-5207
▁elev	-5208
▁gest	-5209
▁prem	-5210
▁race	-5211
▁risa	-5212
▁sche	-5213
▁verd	-5214
▁=----	-5215
▁Anton	-5216
▁Arbor	-5217
▁admin	-5218
▁fácil	-5219
▁gesto	-5220
▁indic	-5221
▁south	-5222
▁wrote	-5223
▁Casino	-5224
▁piedra	-5225
▁preced	-5226
ineering	-5227
▁Charles	-5228
▁embargo	-5229
▁exercise	-5230
▁hicieron	-5231
▁Architect	-5232
▁educational	-5233
ym	-5234
teo	-5235
usa	-5236
xim	-5237
onse	-5238
ping	-5239
▁Just	-5240
▁York	-5241
▁bach	-5242
▁diga	-5243
▁salv	-5244
▁tier	-5245
▁House	-5246
▁aldea	-5247
▁corte	-5248
▁dedos	-5249
▁juego	-5250
▁pedir	-5251
▁thick	-5252
▁Estaba	-5253
▁Palace	-5254
▁conten	-5255
▁dejado	-5256
▁effort	-5257
▁hither	-5258
▁priest	-5259
▁vuelta	-5260
▁ínsula	-5261
▁última	-5262
▁attract	-5263
▁espacio	-5264
▁fuerzas	-5265
▁satisfe	-5266
▁soldado	-5267
▁catedral	-5268
▁escribir	-5269
▁hablando	-5270
US	-5271
Un	-5272
apt	-5273
ech	-5274
cómo	-5275
wise	-5276
▁Pre	-5277
▁hun	-5278
▁jew	-5279
▁sho	-5280
▁thy	-5281
▁vel	-5282
astic	-5283
ativo	-5284
cence	-5285
▁apos	-5286
▁deze	-5287
▁sale	-5288
▁blood	-5289
▁brill	-5290
▁común	-5291
▁indif	-5292
▁serve	-5293
▁esposo	-5294
▁powers	-5295
▁propio	-5296
▁scient	-5297
▁vengan	-5298
▁clérigo	-5299
▁piernas	-5300
▁ventero	-5301
▁Plymouth	-5302
▁instante	-5303
▁miserable	-5304
▁existencia	-5305
si	-5306
You	-5307
olf	-5308
oll	-5309
▁Sw	-5310
aged	-5311
algo	-5312
eleg	-5313
▁Mir	-5314
▁gig	-5315
▁joy	-5316
▁nub	-5317
▁pró	-5318
iedad	-5319
ifice	-5320
iosos	-5321
known	-5322
zaron	-5323
▁Doro	-5324
▁anto	-5325
▁disg	-5326
▁furn	-5327
▁game	-5328
▁poca	-5329
▁trib	-5330
▁valu	-5331
▁vivo	-5332
▁wife	-5333
uésped	-5334
▁desap	-5335
▁disap	-5336
▁minds	-5337
▁mista	-5338
▁siglo	-5339
▁trata	-5340
▁health	-5341
▁palace	-5342
▁permit	-5343
▁resign	-5344
▁terror	-5345
▁viento	-5346
▁religión	-5347
▁servicio	-5348
▁bachiller	-5349
▁structure	-5350
▁remarkable	-5351
▁conversación	-5352
▁organization	-5353
.'	-5354
iñ	-5355
gues	-5356
▁doc	-5357
▁log	-5358
▁mut	-5359
▁oyó	-5360
▁tub	-5361
▁ést	-5362
gment	-5363
▁CORR	-5364
▁gone	-5365
▁obsc	-5366
▁Paris	-5367
▁daban	-5368
▁elect	-5369
▁lines	-5370
▁matar	-5371
▁miles	-5372
▁supre	-5373
▁traje	-5374
▁vigor	-5375
erstood	-5376
▁Seneca	-5377
▁dellos	-5378
▁juicio	-5379
▁lament	-5380
▁médico	-5381
▁noches	-5382
▁spread	-5383
icamente	-5384
▁cuantos	-5385
▁Hellenic	-5386
);	-5387
?».	-5388
egu	-5389
loc	-5390
ray	-5391
▁Ha	-5392
▁Ho	-5393
ande	-5394
▁cól	-5395
▁det	-5396
▁peg	-5397
▁pál	-5398
▁rab	-5399
▁sav	-5400
▁vit	-5401
▁wij	-5402
...».	-5403
uries	-5404
▁desm	-5405
▁fast	-5406
ástima	-5407
▁Henry	-5408
▁equal	-5409
▁etern	-5410
▁ought	-5411
▁respe	-5412
▁usual	-5413
▁wrong	-5414
▁Carras	-5415
▁danger	-5416
▁degree	-5417
▁estuvo	-5418
▁famoso	-5419
▁marked	-5420
▁advanta	-5421
▁escrito	-5422
▁levantó	-5423
▁outside	-5424
▁quieren	-5425
▁sucesos	-5426
▁magnific	-5427
▁semejantes	-5428
ded	-5429
omy	-5430
Cuán	-5431
body	-5432
gada	-5433
utes	-5434
▁fem	-5435
▁pav	-5436
▁yel	-5437
ander	-5438
entar	-5439
ingly	-5440
isión	-5441
orial	-5442
▁Flor	-5443
▁cuch	-5444
▁hago	-5445
▁jard	-5446
▁perf	-5447
idence	-5448
iments	-5449
inario	-5450
umbres	-5451
▁plant	-5452
▁repro	-5453
▁solas	-5454
▁solía	-5455
▁tocar	-5456
anwhile	-5457
▁Santos	-5458
▁aleman	-5459
▁centre	-5460
▁houses	-5461
▁salido	-5462
▁amistad	-5463
▁contrib	-5464
▁entered	-5465
▁foreign	-5466
▁huésped	-5467
▁especial	-5468
▁Cathedral	-5469
EM	-5470
íe	-5471
duce	-5472
iana	-5473
ijke	-5474
▁Fox	-5475
▁Mad	-5476
▁try	-5477
▁uso	-5478
ieren	-5479
onden	-5480
ársel	-5481
▁Mont	-5482
▁abst	-5483
▁desf	-5484
▁nine	-5485
▁size	-5486
▁vert	-5487
▁citiz	-5488
▁clase	-5489
▁felic	-5490
▁muger	-5491
▁names	-5492
▁podrá	-5493
▁sabio	-5494
▁silla	-5495
▁decían	-5496
▁invest	-5497
▁labios	-5498
▁mirada	-5499
▁months	-5500
▁música	-5501
▁pasión	-5502
▁recono	-5503
▁entrañas	-5504
▁According	-5505
▁ourselves	-5506
▁frequently	-5507
▁54	-5508
▁162	-5509
▁Mil	-5510
▁ach	-5511
▁sev	-5512
adora	-5513
encer	-5514
istes	-5515
▁aven	-5516
▁pele	-5517
laimed	-5518
master	-5519
▁Donde	-5520
▁facts	-5521
▁happy	-5522
▁ocurr	-5523
▁touch	-5524
taining	-5525
▁George	-5526
▁charge	-5527
▁coming	-5528
▁contar	-5529
▁Captain	-5530
▁Dorotea	-5531
▁college	-5532
▁conocía	-5533
▁cuidado	-5534
▁francés	-5535
▁circumst	-5536
▁justicia	-5537
▁entendimiento	-5538
ANT	-5539
arb	-5540
iem	-5541
ole	-5542
sch	-5543
uns	-5544
...,	-5545
aled	-5546
eder	-5547
etes	-5548
ills	-5549
▁ape	-5550
▁nog	-5551
▁oía	-5552
▁rre	-5553
▁Brit	-5554
▁prue	-5555
athers	-5556
elling	-5557
ensola	-5558
ishing	-5559
▁busca	-5560
▁dirig	-5561
▁monta	-5562
▁needs	-5563
▁sonre	-5564
▁across	-5565
▁aguard	-5566
▁colour	-5567
▁explic	-5568
▁expres	-5569
▁impres	-5570
▁member	-5571
▁spring	-5572
▁allowed	-5573
▁hombros	-5574
▁require	-5575
▁business	-5576
▁intellig	-5577
▁manifest	-5578
▁scarcely	-5579
▁demasiado	-5580
úp	-5581
esp	-5582
oth	-5583
ites	-5584
onia	-5585
▁beb	-5586
▁diz	-5587
▁vas	-5588
anced	-5589
aries	-5590
iante	-5591
inent	-5592
iéron	-5593
▁Even	-5594
▁Much	-5595
▁crit	-5596
▁duty	-5597
▁hors	-5598
ourage	-5599
▁Build	-5600
▁amena	-5601
▁broad	-5602
▁calor	-5603
▁disci	-5604
▁party	-5605
▁receb	-5606
▁siete	-5607
▁sleep	-5608
▁table	-5609
▁aspect	-5610
▁divers	-5611
▁fantas	-5612
▁perman	-5613
▁piedad	-5614
▁raised	-5615
▁reales	-5616
▁saying	-5617
▁stones	-5618
▁useful	-5619
▁dineros	-5620
▁estando	-5621
▁persons	-5622
▁portion	-5623
▁proport	-5624
▁studies	-5625
▁tampoco	-5626
▁ustedes	-5627
▁features	-5628
▁Argensola	-5629
▁verdadera	-5630
!_	-5631
atr	-5632
gue	-5633
▁Ne	-5634
eres	-5635
gres	-5636
hood	-5637
▁Vol	-5638
▁arc	-5639
▁dog	-5640
▁mue	-5641
▁ses	-5642
inete	-5643
▁cand	-5644
▁oper	-5645
▁pone	-5646
▁conta	-5647
▁pagar	-5648
▁subir	-5649
exclamó	-5650
▁arches	-5651
▁cólera	-5652
▁depart	-5653
▁hardly	-5654
▁convert	-5655
▁soldiers	-5656
AY	-5657
rew	-5658
rij	-5659
rot	-5660
çón	-5661
▁53	-5662
▁AL	-5663
para	-5664
▁Pap	-5665
▁[10	-5666
▁ido	-5667
▁ris	-5668
acles	-5669
▁Sólo	-5670
▁emph	-5671
▁fool	-5672
▁haza	-5673
▁shar	-5674
▁tren	-5675
▁turb	-5676
▁glass	-5677
▁salón	-5678
▁traer	-5679
▁wordt	-5680
▁descub	-5681
▁escape	-5682
▁esfuer	-5683
▁strugg	-5684
▁teatro	-5685
▁Iglesia	-5686
▁consent	-5687
▁matters	-5688
▁aposento	-5689
▁entrance	-5690
▁esperaba	-5691
▁movement	-5692
▁vaulting	-5693
▁relations	-5694
▁discovered	-5695
UM	-5696
AND	-5697
Eso	-5698
Zay	-5699
▁zo	-5700
Zayb	-5701
azos	-5702
erca	-5703
iars	-5704
▁gab	-5705
▁tit	-5706
ecían	-5707
▁carn	-5708
▁enth	-5709
▁fresh	-5710
▁knows	-5711
▁rival	-5712
ference	-5713
▁Philip	-5714
▁commun	-5715
▁façade	-5716
▁honour	-5717
▁larger	-5718
▁sought	-5719
▁liberty	-5720
▁methods	-5721
▁grandeza	-5722
▁occupied	-5723
▁increased	-5724
▁difficulty	-5725
▁scientific	-5726
▁immediately	-5727
ef	-5728
Los	-5729
ify	-5730
uce	-5731
▁51	-5732
▁EL	-5733
▁PL	-5734
anda	-5735
▁123	-5736
▁Ver	-5737
culos	-5738
itado	-5739
which	-5740
▁cabe	-5741
▁cubr	-5742
▁doce	-5743
▁ferm	-5744
▁labr	-5745
▁paid	-5746
▁pred	-5747
▁trae	-5748
▁wild	-5749
atural	-5750
utarch	-5751
▁Board	-5752
▁acabó	-5753
▁acert	-5754
▁court	-5755
▁despe	-5756
▁expla	-5757
▁irrit	-5758
▁rever	-5759
▁spite	-5760
▁takes	-5761
▁displa	-5762
▁dueñas	-5763
▁opened	-5764
▁select	-5765
▁También	-5766
▁company	-5767
▁element	-5768
▁preocup	-5769
▁respeto	-5770
▁tenemos	-5771
▁distance	-5772
▁instruct	-5773
▁produced	-5774
▁rodillas	-5775
▁imposible	-5776
▁naturaleza	-5777
▁establishment	-5778
.[1	-5779
AIN	-5780
ball	-5781
idez	-5782
wijl	-5783
▁Mat	-5784
▁shr	-5785
estas	-5786
gritó	-5787
▁fran	-5788
▁gast	-5789
▁thee	-5790
cieron	-5791
▁burla	-5792
▁defin	-5793
▁curios	-5794
▁defend	-5795
▁espant	-5796
▁famous	-5797
▁respet	-5798
▁specim	-5799
▁Marqués	-5800
▁neglect	-5801
▁opinión	-5802
▁strange	-5803
▁alemanes	-5804
▁churches	-5805
▁whatever	-5806
▁Meanwhile	-5807
▁franceses	-5808
▁entusiasmo	-5809
ILL	-5810
elt	-5811
tru	-5812
▁4,	-5813
bour	-5814
iage	-5815
ored	-5816
roll	-5817
▁Lou	-5818
▁fit	-5819
▁ore	-5820
▁rar	-5821
▁spl	-5822
acity	-5823
ertes	-5824
ially	-5825
▁Aquí	-5826
▁Cont	-5827
▁Mart	-5828
▁hang	-5829
▁plum	-5830
▁sett	-5831
▁wind	-5832
aching	-5833
ounded	-5834
▁forma	-5835
▁plata	-5836
▁press	-5837
▁venga	-5838
▁vivía	-5839
itación	-5840
▁Carden	-5841
▁Margar	-5842
▁edific	-5843
▁extens	-5844
▁gritos	-5845
▁género	-5846
▁insist	-5847
▁proced	-5848
▁conserv	-5849
▁importa	-5850
▁pointed	-5851
▁writing	-5852
▁Governor	-5853
▁addition	-5854
▁habiendo	-5855
▁pictures	-5856
▁tristeza	-5857
▁direction	-5858
▁conscience	-5859
▁resolución	-5860
▁throughout	-5861
▁philosopher	-5862
Po	-5863
''.	-5864
IGH	-5865
▁Fe	-5866
▁ga	-5867
inch	-5868
ivas	-5869
zada	-5870
▁11.	-5871
▁Sup	-5872
▁acá	-5873
▁fle	-5874
enses	-5875
ombre	-5876
▁Both	-5877
▁Eran	-5878
▁Guim	-5879
▁cuyo	-5880
▁esco	-5881
▁glad	-5882
orough	-5883
▁María	-5884
▁Noord	-5885
▁count	-5886
▁onder	-5887
▁penit	-5888
▁señas	-5889
ulation	-5890
▁essent	-5891
▁letras	-5892
▁verano	-5893
▁Spencer	-5894
▁dejando	-5895
▁discuss	-5896
▁mejores	-5897
▁público	-5898
▁entreten	-5899
▁existence	-5900
▁semejante	-5901
▁i	-5902
ALL	-5903
iño	-5904
tis	-5905
ders	-5906
elas	-5907
inth	-5908
quis	-5909
▁Cal	-5910
▁Viv	-5911
▁aud	-5912
▁alab	-5913
▁crow	-5914
▁exec	-5915
▁flor	-5916
▁gold	-5917
▁poet	-5918
▁pond	-5919
▁pure	-5920
▁rise	-5921
ándome	-5922
▁Nunca	-5923
▁claim	-5924
▁crist	-5925
▁firme	-5926
▁London	-5927
▁alemán	-5928
▁belief	-5929
▁narrow	-5930
▁wished	-5931
▁advance	-5932
▁castell	-5933
▁efforts	-5934
▁objects	-5935
▁orgullo	-5936
ification	-5937
▁political	-5938
▁cualquiera	-5939
li	-5940
xes	-5941
▁"¡	-5942
▁50	-5943
adió	-5944
ican	-5945
ilde	-5946
▁Bab	-5947
▁Emp	-5948
▁Her	-5949
▁Maj	-5950
▁Why	-5951
itute	-5952
▁easy	-5953
▁ejér	-5954
▁jour	-5955
▁mald	-5956
▁tono	-5957
erland	-5958
▁Chich	-5959
▁South	-5960
▁admit	-5961
▁below	-5962
▁exped	-5963
▁larga	-5964
▁laugh	-5965
▁river	-5966
▁salía	-5967
▁sober	-5968
▁solic	-5969
▁Romans	-5970
▁acomod	-5971
▁forgot	-5972
▁inmedi	-5973
▁inspir	-5974
▁served	-5975
▁siglos	-5976
▁slight	-5977
▁español	-5978
▁justice	-5979
▁looking	-5980
▁atención	-5981
▁exterior	-5982
▁speaking	-5983
▁vuestras	-5984
▁conscious	-5985
▁contrario	-5986
▁Romanesque	-5987
▁understood	-5988
yó	-5989
"--	-5990
ibl	-5991
xto	-5992
ída	-5993
▁'7	-5994
▁ór	-5995
orra	-5996
oyal	-5997
port	-5998
▁163	-5999
▁164	-6000
ablos	-6001
▁Jaco	-6002
▁blue	-6003
▁draw	-6004
▁pelo	-6005
▁puro	-6006
allero	-6007
iction	-6008
ándola	-6009
▁Peter	-6010
▁desaf	-6011
▁fight	-6012
▁lleva	-6013
▁Obispo	-6014
▁descon	-6015
▁thirty	-6016
▁interes	-6017
▁leading	-6018
▁lástima	-6019
▁measure	-6020
▁stories	-6021
▁Cardenio	-6022
▁Plutarch	-6023
▁answered	-6024
▁provecho	-6025
▁straight	-6026
▁appointed	-6027
▁mentioned	-6028
▁Visitación	-6029
Le	-6030
▁u	-6031
--,	-6032
Don	-6033
RAN	-6034
uid	-6035
▁Bl	-6036
▁Id	-6037
alda	-6038
elle	-6039
elos	-6040
iero	-6041
igen	-6042
quir	-6043
uary	-6044
ñora	-6045
▁Law	-6046
▁heb	-6047
ompan	-6048
stand	-6049
vious	-6050
▁ador	-6051
▁cabr	-6052
▁dama	-6053
▁naar	-6054
▁pale	-6055
▁Algun	-6056
▁Class	-6057
▁Union	-6058
▁agrav	-6059
▁ciego	-6060
▁inhab	-6061
▁malos	-6062
▁pleas	-6063
▁write	-6064
enciado	-6065
uscinda	-6066
▁figure	-6067
▁friars	-6068
▁genius	-6069
▁hallar	-6070
▁heaven	-6071
▁introd	-6072
▁ladrón	-6073
▁manten	-6074
▁native	-6075
▁courses	-6076
▁fratern	-6077
▁princes	-6078
▁puertas	-6079
▁increase	-6080
▁morality	-6081
▁observed	-6082
▁cristianos	-6083
Te	-6084
—:	-6085
ECT	-6086
_).	-6087
caj	-6088
urs	-6089
ardo	-6090
cked	-6091
gaba	-6092
jeto	-6093
rene	-6094
▁10.	-6095
▁Leg	-6096
▁Min	-6097
▁Rip	-6098
▁ann	-6099
▁Chin	-6100
▁Comm	-6101
▁More	-6102
▁ansí	-6103
▁burl	-6104
▁rato	-6105
▁sacó	-6106
▁supo	-6107
▁temp	-6108
▁toca	-6109
▁trem	-6110
▁vaya	-6111
▁albor	-6112
▁creyó	-6113
▁escal	-6114
▁estor	-6115
▁loved	-6116
▁mandó	-6117
▁oídos	-6118
▁temer	-6119
▁active	-6120
▁advert	-6121
▁balcón	-6122
▁distra	-6123
▁extrem	-6124
▁hierro	-6125
▁middle	-6126
▁ciencia	-6127
▁earlier	-6128
▁sucedió	-6129
▁Entonces	-6130
▁Luscinda	-6131
▁extended	-6132
▁llevaban	-6133
▁thorough	-6134
▁centuries	-6135
▁successful	-6136
▁university	-6137
Am	-6138
So	-6139
IST	-6140
acy	-6141
ann	-6142
rás	-6143
▁hé	-6144
▁vy	-6145
adem	-6146
cier	-6147
vido	-6148
çión	-6149
▁133	-6150
▁Its	-6151
▁Más	-6152
▁Rep	-6153
▁ost	-6154
▁río	-6155
▁vea	-6156
calde	-6157
▁deja	-6158
▁hast	-6159
▁meer	-6160
▁pura	-6161
▁step	-6162
amilán	-6163
quence	-6164
▁basta	-6165
▁coche	-6166
▁grado	-6167
▁milag	-6168
▁santa	-6169
▁sazón	-6170
▁acabar	-6171
▁eiland	-6172
▁segura	-6173
▁vieron	-6174
▁window	-6175
▁hablado	-6176
▁llamado	-6177
▁variety	-6178
▁happened	-6179
▁regarded	-6180
▁Ripamilán	-6181
▁questions	-6182
▁Architecture	-6183
AV	-6184
We	-6185
ee	-6186
uñ	-6187
ayo	-6188
reh	-6189
años	-6190
eler	-6191
esch	-6192
oche	-6193
▁183	-6194
▁Bre	-6195
▁Byz	-6196
▁mid	-6197
▁tes	-6198
clesi	-6199
▁alco	-6200
▁hour	-6201
▁Irene	-6202
▁desen	-6203
▁exhib	-6204
▁menor	-6205
▁polic	-6206
▁calles	-6207
▁cantar	-6208
▁fuesen	-6209
▁inútil	-6210
▁provis	-6211
▁seeing	-6212
▁ventana	-6213
▁encontró	-6214
▁invierno	-6215
▁literary	-6216
▁señorito	-6217
▁condición	-6218
gl	-6219
gaz	-6220
íst	-6221
▁od	-6222
amin	-6223
cell	-6224
fort	-6225
raph	-6226
▁Rat	-6227
▁Rec	-6228
▁avo	-6229
▁jar	-6230
mania	-6231
ously	-6232
quina	-6233
▁Allí	-6234
▁baja	-6235
▁cold	-6236
▁fail	-6237
▁vain	-6238
edades	-6239
gement	-6240
▁Liter	-6241
▁Tenía	-6242
▁dedic	-6243
▁looks	-6244
▁moros	-6245
▁negra	-6246
▁reino	-6247
▁shows	-6248
▁suyos	-6249
▁temor	-6250
itation	-6251
▁Though	-6252
▁comien	-6253
▁perdon	-6254
▁worthy	-6255
▁antiguo	-6256
▁capitán	-6257
▁central	-6258
▁ejemplo	-6259
▁espirit	-6260
▁offered	-6261
▁results	-6262
inalmente	-6263
▁accompan	-6264
▁bastante	-6265
▁prepared	-6266
▁certainly	-6267
▁decoration	-6268
▁maintained	-6269
▁opportunity	-6270
▁,	-6271
cab	-6272
hes	-6273
via	-6274
▁Pe	-6275
aten	-6276
etro	-6277
igue	-6278
lesh	-6279
uded	-6280
▁Bur	-6281
▁Mic	-6282
▁Res	-6283
▁eno	-6284
▁hem	-6285
entas	-6286
incón	-6287
worth	-6288
▁Coun	-6289
▁goes	-6290
▁rect	-6291
illing	-6292
utions	-6293
▁celos	-6294
▁intim	-6295
▁llena	-6296
▁north	-6297
▁novel	-6298
▁preci	-6299
▁smile	-6300
▁andaba	-6301
▁cultiv	-6302
▁learnt	-6303
▁myster	-6304
▁office	-6305
▁showed	-6306
▁worden	-6307
▁adopted	-6308
▁carrera	-6309
▁ceremon	-6310
▁querría	-6311
▁creature	-6312
▁nuestras	-6313
▁repeated	-6314
▁sombrero	-6315
▁decorated	-6316
▁presented	-6317
ám	-6318
íz	-6319
but	-6320
lam	-6321
rel	-6322
▁92	-6323
umes	-6324
▁Can	-6325
▁DEL	-6326
▁fus	-6327
▁imm	-6328
▁ojo	-6329
▁slo	-6330
▁uns	-6331
▁ves	-6332
Dónde	-6333
adura	-6334
atura	-6335
mense	-6336
oston	-6337
remos	-6338
▁Foja	-6339
▁anno	-6340
▁bell	-6341
▁blow	-6342
▁dura	-6343
▁fiel	-6344
▁food	-6345
▁impr	-6346
▁luna	-6347
▁sake	-6348
arbuck	-6349
▁Court	-6350
▁First	-6351
▁Great	-6352
▁Joaqu	-6353
▁acept	-6354
▁halló	-6355
▁regal	-6356
▁sitio	-6357
▁embell	-6358
▁mental	-6359
▁mentir	-6360
▁murder	-6361
▁priesa	-6362
▁suelen	-6363
▁consigo	-6364
▁curious	-6365
▁militar	-6366
▁segunda	-6367
▁sobrina	-6368
▁sonrisa	-6369
▁Starbuck	-6370
▁discreto	-6371
▁hitherto	-6372
▁horizont	-6373
▁sympathy	-6374
▁Caballero	-6375
▁dangerous	-6376
HER	-6377
iff	-6378
lev	-6379
▁,,	-6380
▁ep	-6381
anca	-6382
edor	-6383
long	-6384
▁Het	-6385
▁Pol	-6386
▁Val	-6387
▁alf	-6388
▁bon	-6389
andal	-6390
icked	-6391
ingen	-6392
izado	-6393
venir	-6394
▁Sant	-6395
▁apoy	-6396
▁ball	-6397
▁diré	-6398
▁fabl	-6399
▁haré	-6400
▁terc	-6401
▁Capit	-6402
▁breat	-6403
▁colon	-6404
▁domin	-6405
▁malas	-6406
▁mesma	-6407
▁monte	-6408
▁rique	-6409
▁third	-6410
▁amount	-6411
▁caught	-6412
▁estilo	-6413
▁intent	-6414
▁notice	-6415
▁quedar	-6416
▁suceso	-6417
▁Antonio	-6418
▁descend	-6419
▁problem	-6420
▁village	-6421
▁circular	-6422
▁clérigos	-6423
▁estancia	-6424
▁profound	-6425
▁writings	-6426
▁confianza	-6427
▁exclaimed	-6428
▁professor	-6429
▁experiment	-6430
gin	-6431
iód	-6432
▁Im	-6433
IGHT	-6434
amen	-6435
chan	-6436
elve	-6437
iago	-6438
olos	-6439
ucir	-6440
ucía	-6441
▁Cel	-6442
▁Son	-6443
▁Tol	-6444
▁VII	-6445
▁caz	-6446
istry	-6447
vedad	-6448
▁Carn	-6449
▁moun	-6450
▁negr	-6451
▁plat	-6452
▁quiz	-6453
▁task	-6454
▁tree	-6455
▁vano	-6456
▁doctr	-6457
▁flesh	-6458
▁green	-6459
▁skill	-6460
▁excell	-6461
▁extend	-6462
▁fiesta	-6463
▁habría	-6464
▁murmur	-6465
▁needed	-6466
▁becomes	-6467
▁cumplir	-6468
▁masters	-6469
▁Alemania	-6470
▁buscando	-6471
▁standing	-6472
▁valiente	-6473
▁vestidos	-6474
▁including	-6475
▁treatment	-6476
▁admiración	-6477
▁architects	-6478
._:	-6479
cle	-6480
oks	-6481
olly	-6482
onic	-6483
pito	-6484
▁Dec	-6485
▁ace	-6486
▁apl	-6487
▁puñ	-6488
▁sym	-6489
▁ult	-6490
▁vro	-6491
bling	-6492
estic	-6493
ramos	-6494
uelas	-6495
usión	-6496
▁Stud	-6497
▁Volv	-6498
▁bund	-6499
▁derr	-6500
▁hair	-6501
▁lobo	-6502
▁asust	-6503
▁atrib	-6504
▁energ	-6505
▁fuere	-6506
▁paper	-6507
▁toler	-6508
▁Empire	-6509
▁cartas	-6510
▁distin	-6511
▁hechos	-6512
▁jardín	-6513
▁organs	-6514
▁pretty	-6515
▁quanto	-6516
▁quoted	-6517
▁suspir	-6518
locester	-6519
▁affairs	-6520
▁appears	-6521
▁brother	-6522
▁conozco	-6523
▁forward	-6524
▁immense	-6525
▁prevent	-6526
▁terwijl	-6527
enascence	-6528
▁recognized	-6529
▁considerable	-6530
ART	-6531
agu	-6532
ids	-6533
ija	-6534
rom	-6535
uly	-6536
▁AN	-6537
▁BY	-6538
▁UN	-6539
▁Ur	-6540
anci	-6541
ibly	-6542
unst	-6543
▁Pen	-6544
▁Rod	-6545
▁ais	-6546
▁háb	-6547
▁mun	-6548
▁rad	-6549
fermo	-6550
ublic	-6551
▁wise	-6552
ventud	-6553
▁almas	-6554
▁bland	-6555
▁estás	-6556
▁lands	-6557
▁ponía	-6558
▁primo	-6559
▁reneg	-6560
▁rules	-6561
ability	-6562
▁Manila	-6563
▁llorar	-6564
▁patria	-6565
▁periód	-6566
▁threat	-6567
▁derecha	-6568
▁durante	-6569
▁repente	-6570
▁suppose	-6571
▁tuviese	-6572
▁communic	-6573
▁delicate	-6574
▁despreci	-6575
▁hacienda	-6576
▁investig	-6577
▁licencia	-6578
▁remained	-6579
▁supposed	-6580
▁Glocester	-6581
▁naturally	-6582
▁supported	-6583
20	-6584
íp	-6585
her	-6586
ici	-6587
▁ON	-6588
▁pá	-6589
edom	-6590
igne	-6591
past	-6592
▁Men	-6593
▁asc	-6594
▁bul	-6595
▁gew	-6596
ifica	-6597
izing	-6598
omend	-6599
▁Hart	-6600
▁Sans	-6601
▁host	-6602
▁romp	-6603
▁seek	-6604
▁sour	-6605
▁Early	-6606
▁distr	-6607
▁floor	-6608
▁habló	-6609
▁llevó	-6610
▁mezcl	-6611
▁puebl	-6612
▁quebr	-6613
▁santo	-6614
▁seven	-6615
▁torre	-6616
continu	-6617
▁Associ	-6618
▁Regent	-6619
▁campos	-6620
▁corner	-6621
▁double	-6622
▁endeav	-6623
▁horror	-6624
▁horses	-6625
▁slowly	-6626
▁varios	-6627
▁Germany	-6628
▁Perhaps	-6629
▁Philipp	-6630
▁acababa	-6631
▁capilla	-6632
▁grammar	-6633
▁hazañas	-6634
▁pequeño	-6635
▁product	-6636
▁activity	-6637
▁attached	-6638
▁daughter	-6639
▁discurso	-6640
▁earliest	-6641
▁singular	-6642
▁administr	-6643
▁Renascence	-6644
OP	-6645
On	-6646
aca	-6647
ouw	-6648
ule	-6649
yal	-6650
▁'6	-6651
▁má	-6652
ancy	-6653
ilia	-6654
iven	-6655
ogar	-6656
umed	-6657
▁Alf	-6658
▁Ano	-6659
▁dez	-6660
▁gev	-6661
▁vir	-6662
allad	-6663
antar	-6664
ençia	-6665
erden	-6666
tería	-6667
▁Mary	-6668
▁bold	-6669
▁coro	-6670
▁debo	-6671
▁esté	-6672
▁eter	-6673
▁laws	-6674
▁loca	-6675
▁sick	-6676
▁vast	-6677
imismo	-6678
uments	-6679
▁barba	-6680
▁belle	-6681
▁cargo	-6682
▁leyes	-6683
▁perce	-6684
▁solos	-6685
▁somos	-6686
▁sweet	-6687
umentos	-6688
▁Boston	-6689
▁aconte	-6690
▁broken	-6691
▁extent	-6692
▁podido	-6693
▁tomado	-6694
▁wisdom	-6695
eramente	-6696
▁arrived	-6697
▁besides	-6698
▁discipl	-6699
▁enfermo	-6700
▁estudio	-6701
▁serious	-6702
▁smaller	-6703
▁despacho	-6704
▁primeros	-6705
▁Margarita	-6706
▁completed	-6707
▁creatures	-6708
▁doncellas	-6709
▁civilisation	-6710
▁circumstances	-6711
,'	-6712
Era	-6713
bit	-6714
gel	-6715
iot	-6716
▁Dí	-6717
▁Je	-6718
▁Mi	-6719
▁Sy	-6720
▁Tú	-6721
Todo	-6722
come	-6723
erdo	-6724
flow	-6725
▁NOT	-6726
▁Sea	-6727
▁caf	-6728
▁lik	-6729
▁net	-6730
▁sag	-6731
▁sof	-6732
iguel	-6733
osten	-6734
▁Wolf	-6735
▁bird	-6736
▁desl	-6737
▁exig	-6738
▁gehe	-6739
▁gods	-6740
▁none	-6741
▁path	-6742
▁sirv	-6743
▁trip	-6744
ología	-6745
▁Among	-6746
▁bella	-6747
▁cloth	-6748
▁diese	-6749
▁fixed	-6750
▁halla	-6751
▁piece	-6752
▁shown	-6753
ificult	-6754
ilities	-6755
▁Campus	-6756
▁consid	-6757
▁flores	-6758
▁imposs	-6759
▁sobres	-6760
▁street	-6761
▁Capitan	-6762
▁Medical	-6763
▁acuerdo	-6764
▁consegu	-6765
▁deseaba	-6766
▁ingenio	-6767
▁pueblos	-6768
▁creyendo	-6769
▁llegaron	-6770
▁mercedes	-6771
▁presence	-6772
▁venganza	-6773
▁responder	-6774
▁respuesta	-6775
▁sentiment	-6776
▁Finalmente	-6777
▁surrounded	-6778
vr	-6779
ót	-6780
úm	-6781
ban	-6782
isc	-6783
uge	-6784
▁'9	-6785
▁52	-6786
▁ví	-6787
band	-6788
erón	-6789
oren	-6790
zoso	-6791
▁118	-6792
▁Sur	-6793
▁agr	-6794
▁cir	-6795
▁huy	-6796
▁mij	-6797
▁ora	-6798
inted	-6799
unque	-6800
▁algu	-6801
▁reco	-6802
▁verá	-6803
hammed	-6804
▁arras	-6805
▁chair	-6806
▁dream	-6807
▁estóm	-6808
▁lanza	-6809
▁pesad	-6810
▁rough	-6811
iamente	-6812
▁barbas	-6813
▁cities	-6814
▁emphas	-6815
▁fortun	-6816
▁places	-6817
▁reform	-6818
▁consejo	-6819
▁derived	-6820
▁opening	-6821
▁pecados	-6822
▁servido	-6823
▁worship	-6824
▁Building	-6825
▁anterior	-6826
▁believed	-6827
▁evidence	-6828
▁interpre	-6829
▁labrador	-6830
▁military	-6831
▁powerful	-6832
▁provided	-6833
▁acostumbr	-6834
▁carefully	-6835
▁completely	-6836
▁proportion	-6837
!—	-6838
IM	-6839
)=,	-6840
aci	-6841
ney	-6842
pon	-6843
▁Oh	-6844
▁_¡	-6845
▁wo	-6846
hand	-6847
iada	-6848
ibus	-6849
reno	-6850
éase	-6851
▁12.	-6852
▁121	-6853
▁Sec	-6854
▁Tap	-6855
▁XXX	-6856
▁voc	-6857
ested	-6858
áculo	-6859
▁Such	-6860
▁arts	-6861
▁burn	-6862
▁echó	-6863
▁fals	-6864
▁moro	-6865
▁week	-6866
onario	-6867
▁altar	-6868
▁autom	-6869
▁ayuda	-6870
▁coron	-6871
▁dicha	-6872
▁escog	-6873
▁medic	-6874
▁moved	-6875
▁spent	-6876
▁Greece	-6877
▁conser	-6878
▁gather	-6879
▁perpet	-6880
▁vision	-6881
▁Aquella	-6882
▁Schools	-6883
▁benefic	-6884
▁especie	-6885
▁hermoso	-6886
▁dificult	-6887
▁official	-6888
▁opposite	-6889
▁recuerdo	-6890
▁advantage	-6891
▁ejercicio	-6892
▁fundament	-6893
▁necesario	-6894
▁suffering	-6895
▁apparently	-6896
fts	-6897
▁IV	-6898
.»--	-6899
Para	-6900
elen	-6901
idió	-6902
rump	-6903
óvil	-6904
▁131	-6905
▁Cla	-6906
▁ath	-6907
▁doy	-6908
antic	-6909
iding	-6910
▁bron	-6911
▁fijo	-6912
▁news	-6913
▁roll	-6914
▁save	-6915
▁sepa	-6916
tering	-6917
▁Aquel	-6918
▁Trans	-6919
▁Where	-6920
▁agree	-6921
▁apare	-6922
▁despo	-6923
▁drawn	-6924
▁paseo	-6925
▁spect	-6926
ospital	-6927
▁aconse	-6928
▁advice	-6929
▁bosque	-6930
▁bright	-6931
▁entabl	-6932
▁marble	-6933
▁nation	-6934
▁nuevos	-6935
▁recuer	-6936
▁states	-6937
▁varias	-6938
▁vienen	-6939
▁Library	-6940
▁getting	-6941
▁actually	-6942
▁citizens	-6943
▁gabinete	-6944
▁infierno	-6945
▁juventud	-6946
▁esperando	-6947
▁spiritual	-6948
▁impossible	-6949
▁caballerías	-6950
If	-6951
ny	-6952
ATE	-6953
OUR	-6954
del	-6955
eva	-6956
kes	-6957
rez	-6958
uos	-6959
▁Er	-6960
▁NE	-6961
▁RE	-6962
...»	-6963
Como	-6964
cing	-6965
egur	-6966
know	-6967
ners	-6968
vely	-6969
▁151	-6970
▁Hay	-6971
▁hat	-6972
▁pil	-6973
light	-6974
uerta	-6975
useum	-6976
▁Assy	-6977
▁Cort	-6978
▁agre	-6979
▁diss	-6980
▁tall	-6981
▁ways	-6982
▁Orgaz	-6983
▁Plate	-6984
▁accom	-6985
▁cuadr	-6986
▁deber	-6987
▁resem	-6988
▁amante	-6989
▁bottom	-6990
▁comida	-6991
▁fueran	-6992
▁ganado	-6993
▁melanc	-6994
▁simply	-6995
▁courage	-6996
▁dignity	-6997
▁oficial	-6998
▁sacerdo	-6999
▁soledad	-7000
▁trataba	-7001
▁vencido	-7002
▁Guimarán	-7003
▁Scotland	-7004
▁branches	-7005
IP	-7006
OG	-7007
-18	-7008
00,	-7009
don	-7010
wed	-7011
zca	-7012
anth	-7013
fact	-7014
pero	-7015
yect	-7016
▁Hab	-7017
▁Mel	-7018
▁lín	-7019
▁sar	-7020
arily	-7021
erica	-7022
ishes	-7023
orden	-7024
ólogo	-7025
▁león	-7026
▁meta	-7027
▁niño	-7028
▁stup	-7029
▁tort	-7030
▁vill	-7031
ancias	-7032
éndole	-7033
▁board	-7034
▁costa	-7035
▁eenen	-7036
▁heavy	-7037
▁hojas	-7038
▁mould	-7039
▁niños	-7040
▁pesos	-7041
▁proud	-7042
▁watch	-7043
ibility	-7044
▁Sansón	-7045
▁angles	-7046
▁conoce	-7047
▁entero	-7048
▁tongue	-7049
▁atraves	-7050
▁ciertas	-7051
▁convent	-7052
▁encoura	-7053
▁envidia	-7054
▁married	-7055
▁thereby	-7056
▁treinta	-7057
▁término	-7058
▁writers	-7059
▁Muhammed	-7060
▁acquired	-7061
▁arranged	-7062
▁desesper	-7063
▁entiendo	-7064
▁peligros	-7065
▁quisiere	-7066
▁Byzantine	-7067
▁forgotten	-7068
▁necessity	-7069
▁encontraba	-7070
▁licenciado	-7071
▁architectural	-7072
sal	-7073
tot	-7074
▁hi	-7075
Quij	-7076
icle	-7077
iden	-7078
ower	-7079
rían	-7080
uera	-7081
umer	-7082
unta	-7083
▁Eij	-7084
▁Jud	-7085
▁lej	-7086
▁rat	-7087
▁wit	-7088
▁ínt	-7089
ician	-7090
idora	-7091
monos	-7092
▁alle	-7093
▁capa	-7094
▁fría	-7095
▁piso	-7096
▁tijd	-7097
▁zeer	-7098
atives	-7099
▁Monta	-7100
▁camar	-7101
▁caído	-7102
▁inven	-7103
▁llamó	-7104
▁local	-7105
▁meant	-7106
▁sharp	-7107
▁stage	-7108
▁Legisl	-7109
▁afford	-7110
▁bondad	-7111
▁closed	-7112
▁engaño	-7113
▁humild	-7114
▁molest	-7115
▁piados	-7116
▁render	-7117
▁siguió	-7118
▁America	-7119
▁decirle	-7120
▁disimul	-7121
▁equally	-7122
▁espalda	-7123
▁hidalgo	-7124
▁humilde	-7125
▁nombres	-7126
▁quickly	-7127
▁uniform	-7128
▁visible	-7129
▁contrast	-7130
▁designed	-7131
▁hablaban	-7132
▁officers	-7133
▁unfortun	-7134
▁classical	-7135
▁possession	-7136
St	-7137
▁í	-7138
ops	-7139
urm	-7140
óle	-7141
arts	-7142
atar	-7143
irth	-7144
wers	-7145
▁Ant	-7146
▁aid	-7147
▁alo	-7148
▁ben	-7149
▁ces	-7150
▁eat	-7151
▁pág	-7152
▁sky	-7153
ading	-7154
allas	-7155
iores	-7156
▁Germ	-7157
▁earn	-7158
▁madr	-7159
▁tron	-7160
▁vive	-7161
erosos	-7162
ábamos	-7163
▁Desde	-7164
▁Diego	-7165
▁cried	-7166
▁cuart	-7167
▁manda	-7168
▁quizá	-7169
▁steps	-7170
▁trees	-7171
▁doctor	-7172
▁enclos	-7173
▁entire	-7174
▁interv	-7175
▁menudo	-7176
▁nacido	-7177
▁speech	-7178
▁termin	-7179
▁correct	-7180
▁figures	-7181
▁guardar	-7182
▁hacerse	-7183
▁illustr	-7184
▁meaning	-7185
▁picture	-7186
▁rapidly	-7187
▁Egyptian	-7188
▁caballos	-7189
▁expected	-7190
▁judgment	-7191
▁muestras	-7192
▁numerous	-7193
▁realidad	-7194
▁ridículo	-7195
▁valeroso	-7196
▁decorative	-7197
▁Association	-7198
UN	-7199
ax	-7200
éj	-7201
Las	-7202
dez	-7203
esç	-7204
iós	-7205
met	-7206
zan	-7207
▁Lu	-7208
Esto	-7209
ínci	-7210
▁Bel	-7211
▁FOR	-7212
▁Ste	-7213
▁gas	-7214
▁Zora	-7215
▁alas	-7216
▁dear	-7217
▁econ	-7218
▁empr	-7219
▁mons	-7220
▁move	-7221
▁mund	-7222
▁soft	-7223
▁solt	-7224
usiasm	-7225
▁cloud	-7226
▁surmo	-7227
▁Majest	-7228
▁Tappan	-7229
▁battle	-7230
▁cocina	-7231
▁leaves	-7232
▁matrim	-7233
▁puesta	-7234
▁quince	-7235
▁remord	-7236
▁Another	-7237
▁Zoraida	-7238
▁accompl	-7239
▁colores	-7240
▁consult	-7241
▁culture	-7242
▁enemies	-7243
▁letters	-7244
▁simplic	-7245
▁aprovech	-7246
▁estómago	-7247
▁function	-7248
▁olvidado	-7249
▁quedaron	-7250
▁tradition	-7251
▁Government	-7252
▁enthusiasm	-7253
▁information	-7254
▁philosophers	-7255
▁extraordinary	-7256
Re	-7257
--;	-7258
amo	-7259
clo	-7260
lab	-7261
▁'8	-7262
▁55	-7263
▁97	-7264
▁TH	-7265
Bien	-7266
bled	-7267
look	-7268
olis	-7269
onso	-7270
udos	-7271
▁134	-7272
▁Les	-7273
▁Lev	-7274
▁Tor	-7275
▁Two	-7276
▁asp	-7277
▁bac	-7278
▁dry	-7279
▁fas	-7280
▁núm	-7281
▁pis	-7282
ienta	-7283
uncia	-7284
▁Berm	-7285
▁Corn	-7286
▁Entr	-7287
▁Inst	-7288
▁bord	-7289
▁caza	-7290
▁gede	-7291
▁miss	-7292
▁sant	-7293
ograph	-7294
ulated	-7295
▁Assyr	-7296
▁cuest	-7297
▁grupo	-7298
▁horse	-7299
▁patio	-7300
▁pedía	-7301
▁punta	-7302
▁sacud	-7303
▁saint	-7304
▁segur	-7305
▁Carlos	-7306
▁Excell	-7307
▁Vivero	-7308
▁brilli	-7309
▁forces	-7310
▁forget	-7311
▁marcha	-7312
▁pareci	-7313
▁theory	-7314
▁wanted	-7315
▁History	-7316
▁arrastr	-7317
▁averigu	-7318
▁belleza	-7319
▁caminos	-7320
▁cerebro	-7321
▁chiefly	-7322
▁closely	-7323
▁desvent	-7324
▁divided	-7325
▁engaged	-7326
▁entraba	-7327
▁jumento	-7328
▁negocio	-7329
▁ordinar	-7330
▁paredes	-7331
▁pequeña	-7332
▁ponerse	-7333
▁pudiese	-7334
▁suspens	-7335
▁yourself	-7336
▁costumbres	-7337
▁necesitaba	-7338
▁thoroughly	-7339
----------------	-7340
BER	-7341
uez	-7342
hold	-7343
just	-7344
uria	-7345
▁122	-7346
▁Jan	-7347
▁Old	-7348
▁bay	-7349
▁fug	-7350
denes	-7351
endas	-7352
yendo	-7353
érica	-7354
▁Berl	-7355
▁Mass	-7356
▁borr	-7357
▁clav	-7358
▁ends	-7359
▁ship	-7360
▁surv	-7361
▁text	-7362
orship	-7363
▁Llegó	-7364
▁North	-7365
▁arrep	-7366
▁heads	-7367
▁hered	-7368
▁incon	-7369
▁pride	-7370
▁scene	-7371
▁share	-7372
▁torno	-7373
ientras	-7374
masters	-7375
▁asegur	-7376
▁cortes	-7377
▁fright	-7378
▁leguas	-7379
▁perdón	-7380
▁puedes	-7381
▁search	-7382
▁sepult	-7383
▁sufrir	-7384
▁desapar	-7385
▁disappe	-7386
▁persegu	-7387
▁acquaint	-7388
▁cabellos	-7389
▁llamaban	-7390
▁princesa	-7391
▁required	-7392
▁suddenly	-7393
▁Montaigne	-7394
▁presentes	-7395
áp	-7396
Agr	-7397
eas	-7398
feo	-7399
itó	-7400
oper	-7401
▁155	-7402
▁169	-7403
▁Rob	-7404
▁Ser	-7405
▁dia	-7406
▁ina	-7407
astro	-7408
estra	-7409
▁Earl	-7410
▁Rodr	-7411
▁azul	-7412
▁daré	-7413
▁ears	-7414
▁hice	-7415
▁inex	-7416
▁rose	-7417
▁senc	-7418
....--	-7419
icular	-7420
inally	-7421
▁Civil	-7422
▁daily	-7423
▁deben	-7424
▁haría	-7425
▁older	-7426
▁polvo	-7427
▁refin	-7428
▁ricos	-7429
theless	-7430
▁Virgen	-7431
▁derrib	-7432
▁deshon	-7433
▁formal	-7434
▁intens	-7435
▁pregun	-7436
▁strang	-7437
▁blancas	-7438
▁coraçón	-7439
▁disturb	-7440
▁entrada	-7441
▁inhabit	-7442
▁mandado	-7443
▁slender	-7444
▁unknown	-7445
ablemente	-7446
▁autoridad	-7447
▁compañero	-7448
▁preserved	-7449
▁Excellency	-7450
▁espiritual	-7451
▁horizontal	-7452
▁Engineering	-7453
▁constructed	-7454
▁distinction	-7455
▁sentimiento	-7456
:—	-7457
ád	-7458
;--	-7459
Par	-7460
arm	-7461
bil	-7462
tez	-7463
▁99	-7464
▁VI	-7465
cida	-7466
enes	-7467
icks	-7468
ords	-7469
pare	-7470
rals	-7471
vest	-7472
údez	-7473
▁156	-7474
▁Gre	-7475
▁cry	-7476
▁ego	-7477
▁lav	-7478
▁oct	-7479
Royal	-7480
asion	-7481
▁Many	-7482
▁avan	-7483
▁cayó	-7484
▁east	-7485
▁gros	-7486
▁sano	-7487
▁unto	-7488
▁viva	-7489
acción	-7490
ington	-7491
▁contó	-7492
▁dices	-7493
▁encog	-7494
▁grace	-7495
▁incom	-7496
▁llega	-7497
▁pájar	-7498
regular	-7499
▁Chichí	-7500
▁States	-7501
▁Toledo	-7502
▁altern	-7503
▁faltar	-7504
▁hebben	-7505
▁mismos	-7506
▁negros	-7507
▁prínci	-7508
▁report	-7509
cimiento	-7510
ivamente	-7511
▁Juanito	-7512
▁caridad	-7513
▁decided	-7514
▁hermana	-7515
▁lessons	-7516
▁materia	-7517
▁meeting	-7518
▁parents	-7519
▁quedado	-7520
▁refused	-7521
▁temples	-7522
▁zapatos	-7523
▁Bermúdez	-7524
▁advanced	-7525
▁contract	-7526
▁escalera	-7527
▁noticias	-7528
▁particip	-7529
▁physical	-7530
▁separate	-7531
▁struggle	-7532
▁tranquil	-7533
▁community	-7534
▁emperador	-7535
▁discreción	-7536
▁eventually	-7537
?»	-7538
IA	-7539
UT	-7540
het	-7541
jud	-7542
mal	-7543
▁BR	-7544
▁SE	-7545
▁lí	-7546
alog	-7547
line	-7548
ológ	-7549
pers	-7550
they	-7551
▁147	-7552
▁Nap	-7553
▁ast	-7554
▁déj	-7555
▁tin	-7556
iegos	-7557
intió	-7558
▁café	-7559
▁jefe	-7560
▁meas	-7561
▁mess	-7562
▁próx	-7563
▁song	-7564
▁subl	-7565
▁toma	-7566
ashion	-7567
áronse	-7568
▁Ratke	-7569
▁corta	-7570
▁error	-7571
▁fruit	-7572
▁indis	-7573
▁solid	-7574
▁truly	-7575
▁Carnal	-7576
▁aborre	-7577
▁athlet	-7578
▁attend	-7579
▁convid	-7580
▁custom	-7581
▁echter	-7582
▁garden	-7583
▁imagen	-7584
▁madera	-7585
▁notion	-7586
▁prohib	-7587
▁servía	-7588
▁werden	-7589
▁Corinth	-7590
▁appropr	-7591
▁artific	-7592
▁confund	-7593
▁contado	-7594
▁contrad	-7595
▁drawing	-7596
▁encuent	-7597
▁escuela	-7598
▁exactly	-7599
▁faltaba	-7600
▁largely	-7601
▁llevado	-7602
▁passing	-7603
▁seguida	-7604
▁settled	-7605
▁cortesía	-7606
▁ejército	-7607
▁included	-7608
▁relation	-7609
▁graduates	-7610
▁oficiales	-7611
▁organized	-7612
▁precisely	-7613
▁recordaba	-7614
▁celebrated	-7615
▁disparates	-7616
▁introduced	-7617
▁magnificent	-7618
▁schoolmaster	-7619
?—	-7620
Or	-7621
How	-7622
ete	-7623
hal	-7624
ser	-7625
zig	-7626
▁Ga	-7627
atis	-7628
even	-7629
tran	-7630
uses	-7631
▁120	-7632
▁Mal	-7633
▁aff	-7634
▁gor	-7635
▁rul	-7636
estos	-7637
urado	-7638
zaban	-7639
▁bols	-7640
▁dece	-7641
▁excl	-7642
▁pong	-7643
▁ropa	-7644
▁sose	-7645
arning	-7646
añadió	-7647
course	-7648
ctions	-7649
eremos	-7650
fortun	-7651
áticas	-7652
▁absor	-7653
▁digno	-7654
▁named	-7655
▁reina	-7656
▁towns	-7657
▁vroeg	-7658
▁Petron	-7659
▁artill	-7660
▁duties	-7661
▁elabor	-7662
▁labour	-7663
▁orders	-7664
▁twelve	-7665
▁beneath	-7666
▁confess	-7667
▁devoted	-7668
▁edition	-7669
▁muestra	-7670
▁parecen	-7671
▁private	-7672
▁hermanos	-7673
▁trabajos	-7674
▁valuable	-7675
▁vertical	-7676
▁escuderos	-7677
▁suggested	-7678
▁universal	-7679
▁compañeros	-7680
▁experiencia	-7681
▁Christianity	-7682
▁understanding	-7683
Com	-7684
ENA	-7685
ijn	-7686
mat	-7687
tin	-7688
ugn	-7689
▁49	-7690
▁95	-7691
▁ov	-7692
ader	-7693
edas	-7694
sele	-7695
uces	-7696
ulta	-7697
▁128	-7698
▁Den	-7699
▁Off	-7700
▁sot	-7701
▁tía	-7702
iando	-7703
ierro	-7704
ático	-7705
▁Cada	-7706
▁Norm	-7707
▁anci	-7708
▁cred	-7709
▁germ	-7710
▁luch	-7711
▁minu	-7712
▁míst	-7713
▁rend	-7714
▁toen	-7715
▁verb	-7716
caster	-7717
▁Doric	-7718
▁Tales	-7719
▁beber	-7720
▁borra	-7721
▁brief	-7722
▁brown	-7723
▁copla	-7724
▁dimin	-7725
▁fatal	-7726
▁forty	-7727
▁hijas	-7728
▁letra	-7729
▁model	-7730
▁piers	-7731
▁spoke	-7732
▁tower	-7733
▁trato	-7734
▁trust	-7735
hedrals	-7736
retched	-7737
▁azotes	-7738
▁bodies	-7739
▁carret	-7740
▁combat	-7741
▁employ	-7742
▁encerr	-7743
▁imagin	-7744
▁insign	-7745
▁salida	-7746
▁smooth	-7747
▁solemn	-7748
▁título	-7749
▁Council	-7750
▁Jacotot	-7751
▁careful	-7752
▁comfort	-7753
▁malicia	-7754
▁muertos	-7755
▁pedazos	-7756
▁piedras	-7757
▁proyect	-7758
▁started	-7759
▁alcanzar	-7760
▁attitude	-7761
▁carrying	-7762
▁circunst	-7763
▁llegando	-7764
▁pusieron	-7765
▁tuvieron	-7766
▁diciéndole	-7767
▁estudiante	-7768
▁Legislature	-7769
':	-7770
LY	-7771
cla	-7772
ear	-7773
gry	-7774
lib	-7775
nox	-7776
pal	-7777
óst	-7778
▁61	-7779
aire	-7780
isas	-7781
ióse	-7782
olor	-7783
udas	-7784
▁170	-7785
▁Tur	-7786
▁War	-7787
▁saf	-7788
▁vic	-7789
_.--_	-7790
cript	-7791
icism	-7792
redes	-7793
thern	-7794
untos	-7795
▁Dean	-7796
▁Vict	-7797
▁bull	-7798
▁drag	-7799
▁gras	-7800
▁inch	-7801
▁olor	-7802
▁pant	-7803
▁reve	-7804
▁shot	-7805
asedow	-7806
etroit	-7807
▁Otros	-7808
▁Santo	-7809
▁carro	-7810
▁cueva	-7811
▁friar	-7812
▁groot	-7813
▁merch	-7814
▁nubes	-7815
▁revel	-7816
▁sorpr	-7817
▁subse	-7818
▁éstos	-7819
iguales	-7820
▁consum	-7821
▁dijese	-7822
▁divert	-7823
▁escánd	-7824
▁forest	-7825
▁modest	-7826
▁parque	-7827
▁partly	-7828
▁propos	-7829
▁reflex	-7830
▁temper	-7831
▁templo	-7832
▁viejos	-7833
▁writer	-7834
entación	-7835
▁Chinese	-7836
▁Placido	-7837
▁disgust	-7838
▁forming	-7839
▁greatly	-7840
▁growing	-7841
▁nations	-7842
▁plática	-7843
▁prolong	-7844
▁servant	-7845
▁problems	-7846
▁renegado	-7847
▁sucedido	-7848
▁encontrar	-7849
▁exercises	-7850
▁transform	-7851
▁projecting	-7852
▁institution	-7853
91	-7854
oem	-7855
uir	-7856
▁96	-7857
▁Cf	-7858
▁XI	-7859
▁sn	-7860
anim	-7861
iduv	-7862
ints	-7863
pera	-7864
rito	-7865
roso	-7866
▁(18	-7867
▁Sac	-7868
▁bos	-7869
▁bow	-7870
▁cóm	-7871
▁hus	-7872
▁ons	-7873
▁viz	-7874
ereza	-7875
icion	-7876
▁Arab	-7877
▁Buen	-7878
▁Good	-7879
▁cuál	-7880
▁escr	-7881
▁mata	-7882
▁misa	-7883
▁purs	-7884
▁quar	-7885
▁shel	-7886
▁tuve	-7887
bridge	-7888
▁arose	-7889
▁asist	-7890
▁bolsa	-7891
▁camin	-7892
▁coloc	-7893
▁enjoy	-7894
▁fabla	-7895
▁false	-7896
▁fifty	-7897
▁grown	-7898
▁parar	-7899
▁rigor	-7900
▁shape	-7901
▁storm	-7902
▁tells	-7903
▁trium	-7904
iduvina	-7905
▁Miguel	-7906
▁academ	-7907
▁assert	-7908
▁calumn	-7909
▁carcaj	-7910
▁lesson	-7911
▁prueba	-7912
▁recent	-7913
▁repent	-7914
▁vencer	-7915
ulcaster	-7916
▁Detroit	-7917
▁abierto	-7918
▁antigua	-7919
▁asiento	-7920
▁control	-7921
▁flowers	-7922
▁lugares	-7923
▁numbers	-7924
▁ordered	-7925
▁pasaban	-7926
▁passage	-7927
▁receive	-7928
▁ausencia	-7929
▁bringing	-7930
▁confesar	-7931
▁elements	-7932
▁intended	-7933
▁pregunta	-7934
▁confesión	-7935
▁languages	-7936
▁tentacles	-7937
▁wonderful	-7938
▁companions	-7939
▁determined	-7940
▁difference	-7941
[7	-7942
gt	-7943
2).	-7944
=),	-7945
oun	-7946
tan	-7947
tir	-7948
ugo	-7949
▁85	-7950
That	-7951
ault	-7952
cían	-7953
esas	-7954
iber	-7955
ilio	-7956
undo	-7957
▁117	-7958
▁pac	-7959
burgh	-7960
▁dise	-7961
▁dixo	-7962
▁duro	-7963
▁estu	-7964
▁gato	-7965
▁inoc	-7966
▁lose	-7967
▁rare	-7968
▁vist	-7969
flower	-7970
▁Filip	-7971
▁Jesús	-7972
▁absur	-7973
▁cenar	-7974
▁chiqu	-7975
▁clara	-7976
▁coast	-7977
▁darme	-7978
▁espar	-7979
▁excel	-7980
▁finds	-7981
▁mason	-7982
▁outer	-7983
▁pidió	-7984
▁reply	-7985
▁serlo	-7986
▁worse	-7987
▁árbol	-7988
▁attrib	-7989
▁compos	-7990
▁corpor	-7991
▁detuvo	-7992
▁humana	-7993
▁inches	-7994
▁motion	-7995
▁respir	-7996
▁románt	-7997
▁secure	-7998
▁sonaba	-7999
▁sosten	-8000
▁stupid	-8001
▁tomaba	-8002
▁wealth	-8003
▁wholly	-8004
▁winter	-8005
▁yellow	-8006
▁América	-8007
▁concert	-8008
▁follows	-8009
▁interés	-8010
▁partida	-8011
▁tuviera	-8012
▁affected	-8013
▁levantar	-8014
▁muchacho	-8015
▁primeras	-8016
▁tendency	-8017
▁contempor	-8018
▁estrellas	-8019
▁interests	-8020
▁connection	-8021
[3	-8022
ob	-8023
ERC	-8024
URE	-8025
fas	-8026
ipe	-8027
árm	-8028
íno	-8029
óme	-8030
▁"¿	-8031
▁Ol	-8032
atus	-8033
eten	-8034
sued	-8035
uden	-8036
ulum	-8037
▁125	-8038
▁13.	-8039
▁149	-8040
▁Diz	-8041
▁Mur	-8042
▁Sev	-8043
▁Tro	-8044
▁dex	-8045
▁hip	-8046
▁pit	-8047
aucho	-8048
inder	-8049
jarse	-8050
ortal	-8051
uelto	-8052
water	-8053
ábase	-8054
ólico	-8055
▁aman	-8056
▁army	-8057
▁esqu	-8058
▁huir	-8059
▁inno	-8060
▁pide	-8061
▁piel	-8062
▁rica	-8063
▁sois	-8064
▁team	-8065
▁walk	-8066
antino	-8067
▁abrir	-8068
▁abrió	-8069
▁antic	-8070
▁drink	-8071
▁fully	-8072
▁repar	-8073
▁title	-8074
atively	-8075
▁Edward	-8076
▁asunto	-8077
▁criada	-8078
▁empezó	-8079
▁gedeel	-8080
▁harmon	-8081
▁insult	-8082
▁muched	-8083
▁número	-8084
▁portal	-8085
▁quando	-8086
▁suplic	-8087
▁surely	-8088
▁través	-8089
▁triunf	-8090
idamente	-8091
ological	-8092
▁Basedow	-8093
▁Rosario	-8094
▁captain	-8095
▁changed	-8096
▁comedia	-8097
▁freedom	-8098
▁mentira	-8099
▁miradas	-8100
▁recibir	-8101
▁abstract	-8102
▁escribió	-8103
▁interrup	-8104
▁monument	-8105
▁Mulcaster	-8106
▁encuentro	-8107
▁habilidad	-8108
▁irregular	-8109
▁paciencia	-8110
▁conception	-8111
▁enfermedad	-8112
▁finalmente	-8113
▁matrimonio	-8114
▁satisfecho	-8115
▁vetustenses	-8116
▁difficulties	-8117
▁universities	-8118
[5	-8119
All	-8120
ERN	-8121
abr	-8122
bat	-8123
cra	-8124
dor	-8125
ema	-8126
hum	-8127
lig	-8128
mag	-8129
sup	-8130
uff	-8131
▁OR	-8132
▁SU	-8133
▁li	-8134
Dios	-8135
agon	-8136
idel	-8137
izos	-8138
mira	-8139
onas	-8140
quet	-8141
▁135	-8142
▁Mem	-8143
▁enj	-8144
▁ove	-8145
Bueno	-8146
aking	-8147
entía	-8148
itivo	-8149
▁Juli	-8150
▁Pope	-8151
▁ayer	-8152
▁cell	-8153
▁chos	-8154
▁date	-8155
▁hill	-8156
▁libr	-8157
▁lies	-8158
▁peso	-8159
▁root	-8160
uencia	-8161
▁Again	-8162
▁Hasta	-8163
▁Spani	-8164
▁Todas	-8165
▁White	-8166
▁begun	-8167
▁birth	-8168
▁chica	-8169
▁conve	-8170
▁darse	-8171
▁desir	-8172
▁games	-8173
▁incap	-8174
▁polít	-8175
▁proof	-8176
▁reput	-8177
▁saben	-8178
▁trasl	-8179
▁veían	-8180
izquier	-8181
oration	-8182
ualidad	-8183
▁Cristo	-8184
▁applic	-8185
▁circle	-8186
▁compet	-8187
▁events	-8188
▁golpes	-8189
▁oyendo	-8190
▁plaats	-8191
▁scheme	-8192
▁stands	-8193
▁visita	-8194
▁wicked	-8195
▁worked	-8196
continuó	-8197
▁appreci	-8198
▁atrevió	-8199
▁concent	-8200
▁jeweler	-8201
▁partido	-8202
▁pasaron	-8203
▁soldier	-8204
▁studied	-8205
▁treated	-8206
▁accepted	-8207
▁defender	-8208
▁entendía	-8209
▁ignorant	-8210
▁maravill	-8211
▁mostraba	-8212
▁Petronila	-8213
▁españoles	-8214
▁essential	-8215
▁Muhammedan	-8216
▁conocimiento	-8217
[8	-8218
gs	-8219
Sal	-8220
Yes	-8221
cap	-8222
rek	-8223
vin	-8224
▁PR	-8225
icul	-8226
iega	-8227
itte	-8228
olón	-8229
verb	-8230
▁Bal	-8231
▁Fué	-8232
▁Him	-8233
▁Nov	-8234
▁egg	-8235
▁rud	-8236
curas	-8237
esina	-8238
iance	-8239
ienes	-8240
poses	-8241
tries	-8242
ustre	-8243
ácter	-8244
▁Arts	-8245
▁Edin	-8246
▁Rich	-8247
▁edge	-8248
▁evol	-8249
▁fant	-8250
▁fate	-8251
▁lang	-8252
▁paje	-8253
▁rejo	-8254
▁util	-8255
cación	-8256
called	-8257
ciente	-8258
ucción	-8259
▁Altis	-8260
▁Orfeo	-8261
▁colle	-8262
▁fault	-8263
▁mance	-8264
▁nieve	-8265
▁razon	-8266
▁salva	-8267
▁total	-8268
▁viuda	-8269
picuous	-8270
▁Temple	-8271
▁aristo	-8272
▁commer	-8273
▁conced	-8274
▁conden	-8275
▁desert	-8276
▁entram	-8277
▁excess	-8278
▁extrav	-8279
▁fields	-8280
▁inclin	-8281
▁likely	-8282
▁mortal	-8283
▁played	-8284
▁united	-8285
standing	-8286
▁cornice	-8287
▁maneras	-8288
▁minutos	-8289
▁approach	-8290
▁experien	-8291
▁Edinburgh	-8292
▁brilliant	-8293
▁encantado	-8294
▁ignorance	-8295
▁satisfied	-8296
▁Corinthian	-8297
▁authorities	-8298
▁importancia	-8299
▁corresponding	-8300
▁especialmente	-8301
Be	-8302
OC	-8303
6).	-8304
AGE	-8305
gam	-8306
ini	-8307
pel	-8308
úst	-8309
▁60	-8310
▁Du	-8311
▁SH	-8312
▁hy	-8313
anco	-8314
ette	-8315
ieza	-8316
izab	-8317
kind	-8318
quer	-8319
uosa	-8320
zien	-8321
▁161	-8322
▁Act	-8323
▁Cle	-8324
▁Dav	-8325
▁Dur	-8326
▁Gar	-8327
▁PER	-8328
▁QUE	-8329
▁Rab	-8330
▁anx	-8331
▁fro	-8332
▁lif	-8333
▁llo	-8334
▁mam	-8335
Quien	-8336
arrón	-8337
cidos	-8338
ounds	-8339
▁Chap	-8340
▁Cons	-8341
▁Digo	-8342
▁choc	-8343
▁escu	-8344
▁mach	-8345
▁pesc	-8346
▁reír	-8347
▁seso	-8348
▁warm	-8349
frente	-8350
tación	-8351
▁acaba	-8352
▁capaz	-8353
▁doors	-8354
▁dwell	-8355
▁enemy	-8356
▁feliz	-8357
▁ganar	-8358
▁invis	-8359
▁justo	-8360
▁kinds	-8361
▁trope	-8362
▁verso	-8363
iveness	-8364
izabeth	-8365
iéndome	-8366
▁Napole	-8367
▁andado	-8368
▁camisa	-8369
▁deseng	-8370
▁habits	-8371
▁highly	-8372
▁ideals	-8373
▁muerta	-8374
▁nobles	-8375
▁penetr	-8376
▁poesía	-8377
▁santos	-8378
▁symbol	-8379
▁thrown	-8380
▁aspecto	-8381
▁chapter	-8382
▁dijeron	-8383
▁gigante	-8384
▁hallado	-8385
▁iguales	-8386
▁masonry	-8387
▁palacio	-8388
▁pretend	-8389
▁European	-8390
▁Moreover	-8391
▁carácter	-8392
▁contestó	-8393
▁contrary	-8394
▁diameter	-8395
▁mejillas	-8396
▁vuestros	-8397
▁felicidad	-8398
▁personaje	-8399
▁everywhere	-8400
▁interested	-8401
▁descubierto	-8402
▁examination	-8403
▁encantadores	-8404
▁occasionally	-8405
▁sufficiently	-8406
▁schoolmasters	-8407
uk	-8408
3).	-8409
cib	-8410
mir	-8411
ode	-8412
pap	-8413
▁81	-8414
▁AT	-8415
▁mé	-8416
▁ur	-8417
acle	-8418
adme	-8419
goci	-8420
most	-8421
▁119	-8422
▁127	-8423
▁152	-8424
▁COM	-8425
▁cot	-8426
▁hes	-8427
▁inn	-8428
▁lot	-8429
▁oir	-8430
ativa	-8431
eling	-8432
gadas	-8433
venes	-8434
▁Jose	-8435
▁ejec	-8436
▁jorn	-8437
▁obst	-8438
▁scre	-8439
▁sons	-8440
▁stop	-8441
▁tone	-8442
▁veel	-8443
▁vier	-8444
▁Maria	-8445
▁baile	-8446
▁basis	-8447
▁canal	-8448
▁carga	-8449
▁devot	-8450
▁digna	-8451
▁fecho	-8452
▁penas	-8453
▁repla	-8454
▁Aunque	-8455
▁adquir	-8456
▁aisles	-8457
▁chance	-8458
▁desmay	-8459
▁discíp	-8460
▁espect	-8461
▁espera	-8462
▁explan	-8463
▁gaucho	-8464
▁hombro	-8465
▁majest	-8466
▁patron	-8467
▁perten	-8468
▁thrust	-8469
▁travel	-8470
▁traído	-8471
▁changes	-8472
▁comunic	-8473
▁dejaban	-8474
▁fifteen	-8475
▁hacerle	-8476
▁husband	-8477
▁izquier	-8478
▁obscure	-8479
▁silence	-8480
▁tercera	-8481
▁Mientras	-8482
▁becoming	-8483
▁declared	-8484
▁elegante	-8485
▁empezaba	-8486
▁inferior	-8487
▁momentos	-8488
▁promised	-8489
▁sociedad	-8490
▁surprise	-8491
▁concerned	-8492
▁described	-8493
▁effective	-8494
▁expresión	-8495
▁recuerdos	-8496
▁movimiento	-8497
▁Philippines	-8498
=;	-8499
Mi	-8500
ARD	-8501
dis	-8502
imp	-8503
pis	-8504
xed	-8505
óso	-8506
▁56	-8507
▁Ke	-8508
▁Ra	-8509
atre	-8510
mado	-8511
plas	-8512
sych	-8513
utch	-8514
▁124	-8515
▁139	-8516
▁157	-8517
▁165	-8518
▁167	-8519
▁Bro	-8520
▁Mak	-8521
▁ava	-8522
▁box	-8523
inero	-8524
▁Alex	-8525
▁Soci	-8526
▁Trif	-8527
▁beho	-8528
▁dobl	-8529
▁enco	-8530
▁fier	-8531
▁gate	-8532
▁hará	-8533
▁insp	-8534
▁susp	-8535
aresma	-8536
cuenta	-8537
ensión	-8538
iendas	-8539
itando	-8540
ástico	-8541
▁Estas	-8542
▁Estos	-8543
▁Ionic	-8544
▁Luisa	-8545
▁ampar	-8546
▁comía	-8547
▁impul	-8548
▁level	-8549
▁maese	-8550
▁pobla	-8551
▁única	-8552
contest	-8553
▁Angell	-8554
▁Thomas	-8555
▁condem	-8556
▁failed	-8557
▁instit	-8558
▁llenos	-8559
▁motivo	-8560
▁praise	-8561
▁sabían	-8562
▁sacred	-8563
▁salían	-8564
▁settle	-8565
▁tempor	-8566
▁trying	-8567
▁varied	-8568
▁Holland	-8569
▁Persian	-8570
▁buscaba	-8571
▁capable	-8572
▁caprich	-8573
▁clearly	-8574
▁comedor	-8575
▁earnest	-8576
▁elegant	-8577
▁protect	-8578
▁querían	-8579
▁readily	-8580
▁recibió	-8581
▁talking	-8582
▁terreno	-8583
▁working	-8584
▁Carrasco	-8585
▁domestic	-8586
▁esfuerzo	-8587
▁gedeelte	-8588
▁involved	-8589
▁presents	-8590
▁property	-8591
▁services	-8592
▁Elizabeth	-8593
▁Mayflower	-8594
▁interrump	-8595
▁provincia	-8596
▁Altisidora	-8597
▁foundation	-8598
▁igualmente	-8599
▁increasing	-8600
▁periódicos	-8601
▁represents	-8602
▁vetustense	-8603
▁conspicuous	-8604
ALD	-8605
For	-8606
ads	-8607
azo	-8608
hab	-8609
iev	-8610
inn	-8611
sos	-8612
tal	-8613
éle	-8614
▁8,	-8615
▁87	-8616
...!	-8617
000.	-8618
This	-8619
ança	-8620
berg	-8621
grad	-8622
rent	-8623
resp	-8624
ñado	-8625
▁126	-8626
▁14.	-8627
▁141	-8628
▁179	-8629
▁Fig	-8630
▁Our	-8631
chado	-8632
grees	-8633
icted	-8634
iosas	-8635
lying	-8636
ífico	-8637
▁Herm	-8638
▁June	-8639
▁apre	-8640
▁conj	-8641
▁dele	-8642
▁iron	-8643
▁lips	-8644
▁mine	-8645
▁moza	-8646
▁mías	-8647
▁míos	-8648
▁pref	-8649
cional	-8650
orable	-8651
óvenes	-8652
▁Andre	-8653
▁Those	-8654
▁based	-8655
▁blind	-8656
▁calls	-8657
▁conde	-8658
▁debió	-8659
▁falso	-8660
▁hecha	-8661
▁noted	-8662
▁owing	-8663
▁pared	-8664
▁sirve	-8665
▁souls	-8666
▁train	-8667
▁waren	-8668
▁Museum	-8669
▁Reform	-8670
▁anoche	-8671
▁bitter	-8672
▁corría	-8673
▁debían	-8674
▁destos	-8675
▁driven	-8676
▁escena	-8677
▁espejo	-8678
▁huerta	-8679
▁labrad	-8680
▁minute	-8681
▁pieces	-8682
▁piensa	-8683
▁poetas	-8684
▁rincón	-8685
▁sabido	-8686
▁smiled	-8687
▁Domingo	-8688
▁bestias	-8689
▁degrees	-8690
▁entrado	-8691
▁estamos	-8692
▁evening	-8693
▁hiciese	-8694
▁running	-8695
ecimiento	-8696
▁Liduvina	-8697
▁accustom	-8698
▁compared	-8699
▁consuelo	-8700
▁conviene	-8701
▁entiende	-8702
▁obtained	-8703
▁sentidos	-8704
▁sobresal	-8705
▁gentlemen	-8706
▁happiness	-8707
▁primavera	-8708
▁shoulders	-8709
▁constantly	-8710
▁arrangement	-8711
▁consequently	-8712
";	-8713
Tú	-8714
UD	-8715
[4	-8716
ITY	-8717
aux	-8718
lot	-8719
non	-8720
oly	-8721
áez	-8722
▁há	-8723
▁ij	-8724
Buen	-8725
ains	-8726
ding	-8727
here	-8728
ijks	-8729
yram	-8730
▁108	-8731
▁109	-8732
▁129	-8733
▁15.	-8734
▁Iba	-8735
▁kle	-8736
▁nav	-8737
▁épo	-8738
0,000	-8739
adays	-8740
gados	-8741
iated	-8742
uelos	-8743
under	-8744
ólica	-8745
▁ARCH	-8746
▁Pens	-8747
▁Real	-8748
▁Russ	-8749
▁acog	-8750
▁astr	-8751
▁dien	-8752
▁eloc	-8753
▁jura	-8754
▁kerk	-8755
▁legs	-8756
▁mens	-8757
▁ring	-8758
▁safe	-8759
▁sald	-8760
▁semi	-8761
▁stim	-8762
entaba	-8763
icción	-8764
isters	-8765
▁Babyl	-8766
▁Colon	-8767
▁Elena	-8768
▁apost	-8769
▁curas	-8770
▁depos	-8771
▁diría	-8772
▁escla	-8773
▁frecu	-8774
▁lying	-8775
▁males	-8776
▁palos	-8777
▁reven	-8778
▁suave	-8779
▁tegen	-8780
▁utter	-8781
▁valía	-8782
▁yield	-8783
iations	-8784
iéndola	-8785
▁advers	-8786
▁breath	-8787
▁concre	-8788
▁desenc	-8789
▁despre	-8790
▁extran	-8791
▁filóso	-8792
▁fresco	-8793
▁gained	-8794
▁gentil	-8795
▁graves	-8796
▁guarda	-8797
▁linaje	-8798
▁posada	-8799
▁rising	-8800
▁source	-8801
▁trabaj	-8802
abilidad	-8803
▁Algunos	-8804
▁distrib	-8805
▁fashion	-8806
▁fuertes	-8807
▁inquiet	-8808
▁jóvenes	-8809
▁nobleza	-8810
▁produce	-8811
▁removed	-8812
▁sacrist	-8813
▁streets	-8814
▁virtues	-8815
▁conforme	-8816
▁convento	-8817
▁desconoc	-8818
▁descript	-8819
▁parecido	-8820
▁reported	-8821
▁cristiana	-8822
▁gentleman	-8823
▁immediate	-8824
▁volvieron	-8825
▁instrumento	-8826
My	-8827
ii	-8828
0).	-8829
ELL	-8830
ESS	-8831
Tod	-8832
cem	-8833
dra	-8834
euw	-8835
ock	-8836
çer	-8837
▁1:	-8838
▁57	-8839
▁58	-8840
▁91	-8841
cket	-8842
corr	-8843
irme	-8844
lets	-8845
oder	-8846
onds	-8847
onos	-8848
tres	-8849
áver	-8850
▁143	-8851
▁200	-8852
▁Cay	-8853
▁Hom	-8854
▁ira	-8855
▁liv	-8856
▁tru	-8857
atado	-8858
elais	-8859
gando	-8860
igned	-8861
iking	-8862
irect	-8863
onstr	-8864
▁Bird	-8865
▁East	-8866
▁dirá	-8867
▁ener	-8868
▁fond	-8869
▁hurt	-8870
▁mora	-8871
▁pose	-8872
▁sail	-8873
▁vice	-8874
elijke	-8875
▁bless	-8876
▁casta	-8877
▁frase	-8878
▁judge	-8879
▁metal	-8880
▁temía	-8881
▁texto	-8882
▁verás	-8883
▁viese	-8884
usiones	-8885
▁Indian	-8886
▁Martin	-8887
▁alcoba	-8888
▁angust	-8889
▁attain	-8890
▁bienes	-8891
▁comido	-8892
▁cuadro	-8893
▁empres	-8894
▁entera	-8895
▁mandar	-8896
▁novela	-8897
▁perros	-8898
▁repugn	-8899
▁tesoro	-8900
▁weight	-8901
ishments	-8902
▁Camorra	-8903
▁Espolón	-8904
▁Marques	-8905
▁Univers	-8906
▁adelant	-8907
▁asombro	-8908
▁caserón	-8909
▁colours	-8910
▁desired	-8911
▁dormido	-8912
▁faculty	-8913
▁knowing	-8914
▁request	-8915
▁spirits	-8916
▁triumph	-8917
cimientos	-8918
▁Pilgrims	-8919
▁cubierta	-8920
▁figuraba	-8921
▁imaginar	-8922
▁pastores	-8923
▁trabajar	-8924
▁countries	-8925
▁historias	-8926
▁specimens	-8927
▁influencia	-8928
▁consequence	-8929
▁practically	-8930
▁principales	-8931
9).	-8932
Pro	-8933
gué	-8934
how	-8935
lin	-8936
lit	-8937
oms	-8938
uco	-8939
▁90	-8940
▁FR	-8941
▁Ve	-8942
akes	-8943
anch	-8944
anse	-8945
atio	-8946
enos	-8947
esis	-8948
iens	-8949
tion	-8950
vard	-8951
▁130	-8952
▁180	-8953
▁PIN	-8954
▁Ren	-8955
▁XIV	-8956
▁bev	-8957
▁bew	-8958
▁haz	-8959
▁map	-8960
▁sáb	-8961
andad	-8962
cillo	-8963
icero	-8964
illar	-8965
imada	-8966
plies	-8967
utely	-8968
▁Chem	-8969
▁Cruz	-8970
▁Deze	-8971
▁Land	-8972
▁Leon	-8973
▁Oost	-8974
▁acar	-8975
▁arre	-8976
▁calm	-8977
▁dize	-8978
▁eigh	-8979
▁honr	-8980
▁merc	-8981
▁rank	-8982
▁subj	-8983
▁subs	-8984
▁swim	-8985
▁vess	-8986
Porque	-8987
arters	-8988
cember	-8989
esinos	-8990
ración	-8991
répito	-8992
ísimos	-8993
▁Labor	-8994
▁Sobre	-8995
▁arrem	-8996
▁beast	-8997
▁decís	-8998
▁desto	-8999
▁drama	-9000
▁hogar	-9001
▁llave	-9002
▁lucha	-9003
▁piano	-9004
▁serio	-9005
cciones	-9006
iograph	-9007
ización	-9008
▁Joseph	-9009
▁Victor	-9010
▁acerca	-9011
▁alaban	-9012
▁albard	-9013
▁cambio	-9014
▁carnes	-9015
▁discer	-9016
▁enterr	-9017
▁estall	-9018
▁exceed	-9019
▁extern	-9020
▁joined	-9021
▁masses	-9022
▁probar	-9023
▁pálido	-9024
▁refrán	-9025
▁season	-9026
▁transe	-9027
▁vecino	-9028
▁Swallow	-9029
▁address	-9030
▁artists	-9031
▁assured	-9032
▁ciertos	-9033
▁emoción	-9034
▁extremo	-9035
▁leaders	-9036
▁ofreció	-9037
▁pecador	-9038
▁cuarenta	-9039
▁engañado	-9040
▁proposed	-9041
▁señorita	-9042
▁compasión	-9043
▁escándalo	-9044
▁estuviese	-9045
▁excellent	-9046
▁religioso	-9047
▁situation	-9048
▁insignific	-9049
▁Constantino	-9050
▁independent	-9051
▁intelligence	-9052
-,	-9053
Sy	-9054
[6	-9055
_!	-9056
,[1	-9057
IAN	-9058
Mas	-9059
Una	-9060
Ven	-9061
cep	-9062
ibr	-9063
sed	-9064
was	-9065
▁5,	-9066
▁86	-9067
▁98	-9068
▁Ff	-9069
▁Wa	-9070
▁ax	-9071
abes	-9072
andr	-9073
arás	-9074
carr	-9075
inci	-9076
orte	-9077
raid	-9078
▁140	-9079
▁144	-9080
▁150	-9081
▁16.	-9082
▁182	-9083
▁MAN	-9084
▁aro	-9085
There	-9086
iados	-9087
iebre	-9088
inaga	-9089
order	-9090
ority	-9091
presa	-9092
uerte	-9093
ñores	-9094
▁Arag	-9095
▁Gall	-9096
▁Like	-9097
▁Qued	-9098
▁Scho	-9099
▁almo	-9100
▁area	-9101
▁conp	-9102
▁drew	-9103
▁echo	-9104
▁harm	-9105
▁irse	-9106
▁pell	-9107
▁supl	-9108
▁tiny	-9109
▁wait	-9110
ariaga	-9111
iation	-9112
itario	-9113
ivileg	-9114
▁Domin	-9115
▁Salam	-9116
▁arbit	-9117
▁brick	-9118
▁canto	-9119
▁locos	-9120
▁malic	-9121
▁muere	-9122
▁novio	-9123
▁obser	-9124
▁reyes	-9125
▁royal	-9126
▁terms	-9127
▁tonto	-9128
▁unity	-9129
ardinal	-9130
▁Master	-9131
▁cariño	-9132
▁casado	-9133
▁corred	-9134
▁destas	-9135
▁detail	-9136
▁energy	-9137
▁exclam	-9138
▁huesos	-9139
▁hábito	-9140
▁niebla	-9141
▁predic	-9142
▁regoci	-9143
▁restra	-9144
▁silent	-9145
▁stream	-9146
▁tender	-9147
▁Joaquín	-9148
▁alborot	-9149
▁alcalde	-9150
▁amongst	-9151
▁belongs	-9152
▁cadáver	-9153
▁intelig	-9154
▁leaving	-9155
▁persuad	-9156
▁senador	-9157
▁tierras	-9158
▁triunfo	-9159
▁vecinos	-9160
▁visitas	-9161
ashington	-9162
▁Rabelais	-9163
▁antiguos	-9164
▁capacity	-9165
▁enfrente	-9166
▁impertin	-9167
▁maintain	-9168
▁recently	-9169
▁specific	-9170
▁suffered	-9171
▁Madariaga	-9172
▁cathedral	-9173
▁prisoners	-9174
▁curiosidad	-9175
▁surmounted	-9176
▁Accordingly	-9177
▁fundamental	-9178
▁imagination	-9179
▁translation	-9180
LD	-9181
LO	-9182
bu	-9183
ITH	-9184
Pal	-9185
Sid	-9186
_),	-9187
_--	-9188
bij	-9189
dam	-9190
rue	-9191
zee	-9192
ças	-9193
▁'0	-9194
▁2:	-9195
▁ps	-9196
acht	-9197
amar	-9198
bury	-9199
olic	-9200
then	-9201
unda	-9202
uoso	-9203
vens	-9204
áles	-9205
▁...	-9206
▁116	-9207
▁17.	-9208
▁Enc	-9209
▁hot	-9210
▁ron	-9211
▁tel	-9212
astes	-9213
ismos	-9214
ordia	-9215
▁Cath	-9216
▁Each	-9217
▁Karl	-9218
▁Mira	-9219
▁Ovid	-9220
▁afir	-9221
▁mirr	-9222
▁palm	-9223
▁pour	-9224
▁reno	-9225
▁reun	-9226
▁rúst	-9227
▁twee	-9228
ancing	-9229
ísimas	-9230
▁alike	-9231
▁altas	-9232
▁andan	-9233
▁arreg	-9234
▁barca	-9235
▁birds	-9236
▁comun	-9237
▁desal	-9238
▁desat	-9239
▁fusil	-9240
▁línea	-9241
▁marks	-9242
▁refle	-9243
▁rocks	-9244
▁shore	-9245
▁throw	-9246
andante	-9247
asiones	-9248
icación	-9249
tograph	-9250
▁Desque	-9251
▁Milton	-9252
▁afraid	-9253
▁andere	-9254
▁antiqu	-9255
▁añadió	-9256
▁bishop	-9257
▁callar	-9258
▁echado	-9259
▁exquis	-9260
▁inside	-9261
▁mechan	-9262
▁oyeron	-9263
▁sierra	-9264
▁thinks	-9265
▁truths	-9266
izations	-9267
▁Classic	-9268
▁acquire	-9269
▁alegres	-9270
▁alguien	-9271
▁assumed	-9272
▁authors	-9273
▁complic	-9274
▁comprar	-9275
▁conform	-9276
▁desnudo	-9277
▁diablos	-9278
▁enferma	-9279
▁fortune	-9280
▁indifer	-9281
▁locuras	-9282
▁sonreía	-9283
▁órdenes	-9284
▁Barinaga	-9285
▁cuestión	-9286
▁directly	-9287
▁discreta	-9288
▁entraron	-9289
▁feelings	-9290
▁muchacha	-9291
▁national	-9292
▁privileg	-9293
▁properly	-9294
▁purposes	-9295
▁quedaban	-9296
▁striking	-9297
▁Eijerland	-9298
▁estrépito	-9299
▁diligencia	-9300
▁mysterious	-9301
▁inhabitants	-9302
▁muchedumbre	-9303
ém	-9304
ACE	-9305
COR	-9306
HIC	-9307
OST	-9308
akt	-9309
fes	-9310
fin	-9311
wel	-9312
▁83	-9313
▁89	-9314
▁93	-9315
▁=¡	-9316
.--¡	-9317
ajar	-9318
blas	-9319
bouw	-9320
cham	-9321
elig	-9322
ends	-9323
four	-9324
ifts	-9325
ipod	-9326
rano	-9327
roqu	-9328
sted	-9329
udal	-9330
udes	-9331
▁101	-9332
▁110	-9333
▁154	-9334
▁CAT	-9335
▁End	-9336
▁Ram	-9337
▁Sub	-9338
▁Tir	-9339
▁bez	-9340
▁lun	-9341
▁obr	-9342
▁ont	-9343
ciese	-9344
enote	-9345
genes	-9346
hemat	-9347
itate	-9348
jados	-9349
verse	-9350
zones	-9351
▁Bern	-9352
▁City	-9353
▁Edel	-9354
▁Luis	-9355
▁Prim	-9356
▁aráb	-9357
▁créd	-9358
▁deje	-9359
▁desa	-9360
▁dipl	-9361
▁durm	-9362
▁hide	-9363
▁humo	-9364
▁lien	-9365
▁ruin	-9366
▁scal	-9367
▁serm	-9368
▁usar	-9369
ensive	-9370
▁Entre	-9371
▁Louis	-9372
▁Roque	-9373
▁aburr	-9374
▁afect	-9375
▁brain	-9376
▁cigar	-9377
▁egoís	-9378
▁fazer	-9379
▁hable	-9380
▁harto	-9381
▁inner	-9382
▁negar	-9383
▁noise	-9384
▁quant	-9385
▁recre	-9386
▁rooms	-9387
▁salvo	-9388
▁seren	-9389
▁trigo	-9390
▁announ	-9391
▁barbar	-9392
▁begins	-9393
▁coplas	-9394
▁defect	-9395
▁eclesi	-9396
▁empire	-9397
▁fishes	-9398
▁genoem	-9399
▁grupos	-9400
▁killed	-9401
▁mostró	-9402
▁puerto	-9403
▁recomm	-9404
▁soberb	-9405
Sidenote	-9406
▁British	-9407
▁Profess	-9408
▁acabado	-9409
▁conoció	-9410
▁crowned	-9411
▁cuantas	-9412
▁decirse	-9413
▁keeping	-9414
▁miseria	-9415
▁recover	-9416
▁sentado	-9417
▁showing	-9418
entamente	-9419
eraciones	-9420
▁demanded	-9421
▁escandal	-9422
▁mountain	-9423
▁painting	-9424
▁province	-9425
▁salieron	-9426
▁servants	-9427
▁Cambridge	-9428
▁corriente	-9429
▁humanidad	-9430
▁importaba	-9431
▁industria	-9432
▁altogether	-9433
▁punishment	-9434
withstanding	-9435
▁accompanied	-9436
▁entablature	-9437
▁unfortunate	-9438
▁volviéndose	-9439
▁confesonario	-9440
▁verdaderamente	-9441
OO	-9442
Cre	-9443
ISH	-9444
Ten	-9445
aly	-9446
igr	-9447
isp	-9448
iés	-9449
çio	-9450
▁3:	-9451
▁Ox	-9452
▁«_	-9453
.--¿	-9454
Alex	-9455
adow	-9456
agog	-9457
anso	-9458
cean	-9459
lijk	-9460
nder	-9461
post	-9462
selo	-9463
ucho	-9464
utor	-9465
▁171	-9466
▁Ber	-9467
▁Dan	-9468
▁MAR	-9469
▁Sim	-9470
▁Wor	-9471
▁fee	-9472
▁opt	-9473
▁pañ	-9474
▁pot	-9475
Vamos	-9476
ciosa	-9477
ganta	-9478
guard	-9479
jeros	-9480
íguez	-9481
▁BERC	-9482
▁Cong	-9483
▁Habl	-9484
▁Phil	-9485
▁Roma	-9486
▁Well	-9487
▁hung	-9488
▁ingr	-9489
▁lady	-9490
▁pude	-9491
▁seno	-9492
▁subm	-9493
▁tail	-9494
▁tomb	-9495
▁verk	-9496
▁víct	-9497
▁Salvi	-9498
▁alter	-9499
▁altos	-9500
▁avoid	-9501
▁burst	-9502
▁caída	-9503
▁chico	-9504
▁explo	-9505
▁girls	-9506
▁glory	-9507
▁gusta	-9508
▁month	-9509
▁pieza	-9510
▁plans	-9511
▁repos	-9512
▁sentó	-9513
▁tears	-9514
▁thans	-9515
▁verla	-9516
legiate	-9517
▁Europa	-9518
▁Greeks	-9519
▁acudir	-9520
▁attack	-9521
▁caused	-9522
▁chosen	-9523
▁conver	-9524
▁cuesta	-9525
▁evitar	-9526
▁expans	-9527
▁hidden	-9528
▁parado	-9529
▁presum	-9530
▁whence	-9531
▁aliento	-9532
▁defensa	-9533
▁descans	-9534
▁foolish	-9535
▁hearing	-9536
▁máquina	-9537
▁narices	-9538
▁noticed	-9539
▁papeles	-9540
▁promise	-9541
▁señales	-9542
▁sospech	-9543
▁turning	-9544
▁Edelmira	-9545
▁Florence	-9546
▁acordaba	-9547
▁brothers	-9548
▁consejos	-9549
▁constant	-9550
▁gathered	-9551
▁llegaban	-9552
▁pleasant	-9553
▁supuesto	-9554
▁tormento	-9555
▁vosotros	-9556
pendicular	-9557
▁Rodríguez	-9558
▁cincuenta	-9559
▁doubtless	-9560
▁furnished	-9561
▁substance	-9562
▁Montesinos	-9563
▁Washington	-9564
▁pesadumbre	-9565
,—	-9566
my	-9567
íc	-9568
Así	-9569
UST	-9570
abo	-9571
esc	-9572
ett	-9573
iér	-9574
▁70	-9575
▁FO	-9576
▁nu	-9577
...?	-9578
eden	-9579
eloj	-9580
enso	-9581
gura	-9582
hire	-9583
orum	-9584
rott	-9585
ulto	-9586
west	-9587
▁132	-9588
▁153	-9589
▁181	-9590
▁Div	-9591
▁Sar	-9592
▁Vic	-9593
▁Was	-9594
▁apt	-9595
▁coy	-9596
▁elo	-9597
▁nas	-9598
▁rug	-9599
▁tum	-9600
alles	-9601
arece	-9602
barde	-9603
entan	-9604
icago	-9605
place	-9606
ynast	-9607
ánico	-9608
▁Nich	-9609
▁Toda	-9610
▁apag	-9611
▁dict	-9612
▁dull	-9613
▁exal	-9614
▁neck	-9615
▁podr	-9616
▁pray	-9617
▁ribs	-9618
▁tert	-9619
atorio	-9620
ground	-9621
unting	-9622
▁Other	-9623
▁advis	-9624
▁aguas	-9625
▁apunt	-9626
▁aspir	-9627
▁crowd	-9628
▁culto	-9629
▁decid	-9630
▁desag	-9631
▁desem	-9632
▁eager	-9633
▁embra	-9634
▁erect	-9635
▁escus	-9636
▁fatig	-9637
▁geleg	-9638
▁gozar	-9639
▁hence	-9640
▁mover	-9641
▁prete	-9642
▁preva	-9643
▁respl	-9644
tamente	-9645
▁Aragón	-9646
▁accord	-9647
▁annual	-9648
▁aprend	-9649
▁burlas	-9650
▁career	-9651
▁descar	-9652
▁finest	-9653
▁freely	-9654
▁humano	-9655
▁lovely	-9656
▁pasada	-9657
▁pierde	-9658
▁poison	-9659
▁progra	-9660
▁siento	-9661
▁spoken	-9662
▁tabern	-9663
▁testim	-9664
▁volupt	-9665
atamente	-9666
▁Germans	-9667
▁Science	-9668
▁ability	-9669
▁afterno	-9670
▁aventur	-9671
▁bunders	-9672
▁cabrero	-9673
▁compreh	-9674
▁concept	-9675
▁consigu	-9676
▁created	-9677
▁dejaron	-9678
▁demonio	-9679
▁designs	-9680
▁espanto	-9681
▁granted	-9682
▁hacerlo	-9683
▁mankind	-9684
▁marqués	-9685
▁muebles	-9686
▁observe	-9687
▁pattern	-9688
▁playing	-9689
▁querida	-9690
▁Hartrott	-9691
▁Teresina	-9692
▁asimismo	-9693
▁confined	-9694
▁cuchillo	-9695
▁garganta	-9696
▁humanity	-9697
▁nowadays	-9698
▁obligado	-9699
▁platform	-9700
▁sciences	-9701
▁studying	-9702
▁vigorous	-9703
▁distancia	-9704
▁parientes	-9705
▁reference	-9706
▁accustomed	-9707
▁esperanzas	-9708
▁individuals	-9709
▁observation	-9710
▁conversation	-9711
.:	-9712
Su	-9713
TH	-9714
TS	-9715
ju	-9716
mb	-9717
ód	-9718
IEN	-9719
ILD	-9720
ixo	-9721
key	-9722
pec	-9723
uza	-9724
zes	-9725
ést	-9726
▁65	-9727
▁94	-9728
five	-9729
huis	-9730
izen	-9731
note	-9732
uten	-9733
velo	-9734
▁168	-9735
▁Apr	-9736
▁Van	-9737
▁cou	-9738
▁díg	-9739
▁enm	-9740
▁vid	-9741
araig	-9742
chero	-9743
estro	-9744
field	-9745
garse	-9746
imate	-9747
ipped	-9748
ndeed	-9749
▁Greg	-9750
▁Long	-9751
▁Mark	-9752
▁Nada	-9753
▁Only	-9754
▁Papa	-9755
▁VIII	-9756
▁abog	-9757
▁apet	-9758
▁bail	-9759
▁cena	-9760
▁corp	-9761
▁dejé	-9762
▁eeuw	-9763
▁fame	-9764
▁garr	-9765
▁guns	-9766
▁juro	-9767
▁lluv	-9768
▁logr	-9769
▁mono	-9770
▁paga	-9771
▁proc	-9772
▁stay	-9773
▁suic	-9774
▁tern	-9775
gments	-9776
ienpre	-9777
imento	-9778
itaban	-9779
uestro	-9780
▁Tiago	-9781
▁basil	-9782
▁casos	-9783
▁champ	-9784
▁choir	-9785
▁demos	-9786
▁derra	-9787
▁duelo	-9788
▁insol	-9789
▁logic	-9790
▁murió	-9791
▁oreja	-9792
▁pluma	-9793
▁purch	-9794
▁quedo	-9795
▁saved	-9796
▁speed	-9797
▁subió	-9798
▁veint	-9799
▁verme	-9800
enedict	-9801
usschen	-9802
▁During	-9803
▁Nether	-9804
▁Norman	-9805
▁Triste	-9806
▁United	-9807
▁acknow	-9808
▁acordó	-9809
▁armado	-9810
▁confer	-9811
▁eterna	-9812
▁forced	-9813
▁fortal	-9814
▁hollow	-9815
▁listen	-9816
▁llevan	-9817
▁motive	-9818
▁salvar	-9819
▁silver	-9820
▁splend	-9821
▁Anuncia	-9822
▁Chicago	-9823
▁Protest	-9824
▁actions	-9825
▁clothes	-9826
▁desires	-9827
▁escudos	-9828
▁founded	-9829
▁motives	-9830
▁ofrecía	-9831
▁pájaros	-9832
▁stopped	-9833
▁underta	-9834
▁vueltas	-9835
▁últimos	-9836
▁desgraci	-9837
▁encomend	-9838
▁neighbor	-9839
▁remediar	-9840
▁committed	-9841
▁exception	-9842
▁expressed	-9843
▁ordinario	-9844
▁provision	-9845
▁sacrifice	-9846
▁situación	-9847
▁castellano	-9848
▁department	-9849
▁encontrado	-9850
▁originally	-9851
▁refinement	-9852
▁preparation	-9853
▁administration	-9854
IE	-9855
UC	-9856
AST	-9857
Let	-9858
Ser	-9859
bid	-9860
cav	-9861
hon	-9862
who	-9863
zon	-9864
ént	-9865
▁(6	-9866
▁59	-9867
▁66	-9868
▁71	-9869
▁84	-9870
▁EX	-9871
."--	-9872
añas	-9873
enen	-9874
estr	-9875
feto	-9876
iría	-9877
isco	-9878
reas	-9879
this	-9880
ugur	-9881
umin	-9882
urno	-9883
ázar	-9884
▁111	-9885
▁158	-9886
▁160	-9887
▁18.	-9888
▁Fer	-9889
▁HER	-9890
▁Lan	-9891
▁Pur	-9892
▁Sam	-9893
▁unw	-9894
ental	-9895
ernos	-9896
jetos	-9897
mmetr	-9898
omoza	-9899
pping	-9900
queza	-9901
uelta	-9902
zebel	-9903
▁Club	-9904
▁Crab	-9905
▁Stan	-9906
▁amid	-9907
▁defe	-9908
▁exag	-9909
▁fero	-9910
▁gaze	-9911
▁héro	-9912
▁inev	-9913
▁omes	-9914
▁paño	-9915
▁rein	-9916
▁tías	-9917
imesmo	-9918
▁Hoorn	-9919
▁Nadie	-9920
▁benef	-9921
▁breve	-9922
▁clero	-9923
▁divis	-9924
▁niñas	-9925
▁pares	-9926
▁range	-9927
▁rebel	-9928
▁rebuz	-9929
▁reign	-9930
▁sigue	-9931
▁suyas	-9932
▁twice	-9933
▁vener	-9934
▁ARCHIT	-9935
▁Athens	-9936
▁Fortun	-9937
▁Indeed	-9938
▁Offero	-9939
▁arranc	-9940
▁campan	-9941
▁cerrar	-9942
▁creído	-9943
▁disput	-9944
▁examin	-9945
▁fourth	-9946
▁groups	-9947
▁island	-9948
▁mainly	-9949
▁proces	-9950
▁sotana	-9951
▁suspic	-9952
▁unless	-9953
▁venced	-9954
▁wooden	-9955
celencia	-9956
ibilidad	-9957
▁Finally	-9958
▁Jezebel	-9959
▁anticip	-9960
▁cristal	-9961
▁energía	-9962
▁haberle	-9963
▁learner	-9964
▁mistake	-9965
▁mostrar	-9966
▁notable	-9967
▁pasados	-9968
▁portico	-9969
▁satisfa	-9970
▁superst	-9971
▁tristes	-9972
▁waiting	-9973
▁admitted	-9974
▁consists	-9975
▁directed	-9976
▁fantasía	-9977
▁improvis	-9978
▁llevando	-9979
▁millones	-9980
▁possibly	-9981
▁profundo	-9982
▁tusschen	-9983
▁Salamanca	-9984
▁enamorada	-9985
▁facilidad	-9986
▁fortunate	-9987
▁intention	-9988
▁misfortun	-9989
▁otherwise	-9990
▁solamente	-9991
▁associated	-9992
▁desgracias	-9993
▁obscuridad	-9994
▁perfection	-9995
▁repetition	-9996
▁structural	-9997
▁application	-9998
▁interrupted	-9999
AG	-10000
Ni	-10001
00.	-10002
7).	-10003
PLE	-10004
ake	-10005
chn	-10006
jor	-10007
tel	-10008
▁72	-10009
▁9,	-10010
▁Oc	-10011
Cuál	-10012
Well	-10013
ambr	-10014
rina	-10015
uate	-10016
érez	-10017
íase	-10018
ídos	-10019
▁115	-10020
▁Fre	-10021
▁Ins	-10022
▁Jew	-10023
▁ave	-10024
▁cun	-10025
▁cár	-10026
▁lux	-10027
▁obe	-10028
▁ram	-10029
▁riv	-10030
▁rot	-10031
▁rra	-10032
▁ráp	-10033
▁usa	-10034
Ahora	-10035
aints	-10036
amber	-10037
arium	-10038
elaez	-10039
orpor	-10040
oster	-10041
uched	-10042
ushed	-10043
using	-10044
wster	-10045
▁Amad	-10046
▁Hill	-10047
▁ahor	-10048
▁bore	-10049
▁chim	-10050
▁dedo	-10051
▁faze	-10052
▁fino	-10053
▁irre	-10054
▁pair	-10055
▁pity	-10056
▁prel	-10057
▁prot	-10058
▁raza	-10059
▁repr	-10060
▁skin	-10061
▁star	-10062
▁tide	-10063
▁vaca	-10064
▁vind	-10065
▁whis	-10066
aderos	-10067
ección	-10068
ipodio	-10069
tember	-10070
éndose	-10071
ública	-10072
▁Brown	-10073
▁David	-10074
▁Hence	-10075
▁activ	-10076
▁adapt	-10077
▁advoc	-10078
▁alred	-10079
▁devil	-10080
▁empuj	-10081
▁enlar	-10082
▁falsa	-10083
▁femen	-10084
▁jugar	-10085
▁reeds	-10086
▁reloj	-10087
▁roofs	-10088
▁shaft	-10089
▁slave	-10090
▁sword	-10091
▁Muchos	-10092
▁Quando	-10093
▁Somoza	-10094
▁absurd	-10095
▁affair	-10096
▁dellas	-10097
▁divine	-10098
▁dormía	-10099
▁enorme	-10100
▁exclus	-10101
▁expand	-10102
▁filoso	-10103
▁golden	-10104
▁habido	-10105
▁incons	-10106
▁largas	-10107
▁manjar	-10108
▁objeto	-10109
▁please	-10110
▁policy	-10111
▁reader	-10112
▁retain	-10113
▁sorrow	-10114
▁towers	-10115
▁wishes	-10116
▁Harvard	-10117
▁Natural	-10118
▁cansado	-10119
▁castigo	-10120
▁cuerpos	-10121
▁include	-10122
▁miraban	-10123
▁organic	-10124
▁pensado	-10125
▁pilgrim	-10126
▁riqueza	-10127
▁scholar	-10128
▁tendría	-10129
▁Brewster	-10130
▁Nicholas	-10131
▁animales	-10132
▁conquist	-10133
▁estación	-10134
▁hubieran	-10135
▁inconven	-10136
▁remarked	-10137
▁ARCHITECT	-10138
▁Augustine	-10139
▁Francisco	-10140
▁Monipodio	-10141
▁afternoon	-10142
▁agradable	-10143
▁destroyed	-10144
▁neglected	-10145
▁presently	-10146
▁procuraba	-10147
▁sacerdote	-10148
▁volviendo	-10149
▁attractive	-10150
▁carcajadas	-10151
▁impression	-10152
▁opposition	-10153
▁penitencia	-10154
▁introduction	-10155
▁inmediatamente	-10156
Gr	-10157
Ha	-10158
Jan	-10159
Más	-10160
Why	-10161
bes	-10162
dat	-10163
ext	-10164
fil	-10165
gez	-10166
zob	-10167
çes	-10168
▁67	-10169
▁80	-10170
▁Na	-10171
▁Sc	-10172
▁ko	-10173
adar	-10174
arqu	-10175
baro	-10176
curr	-10177
iant	-10178
idat	-10179
ieto	-10180
iety	-10181
ilos	-10182
içio	-10183
jada	-10184
jole	-10185
oned	-10186
rabe	-10187
úcar	-10188
▁105	-10189
▁Bac	-10190
▁Dar	-10191
▁Dog	-10192
▁Red	-10193
▁Rey	-10194
▁Uno	-10195
▁[17	-10196
▁ceñ	-10197
▁ges	-10198
▁pár	-10199
▁zar	-10200
allel	-10201
esang	-10202
etano	-10203
hetic	-10204
ilian	-10205
iring	-10206
itely	-10207
jaban	-10208
ymnas	-10209
zados	-10210
▁Brad	-10211
▁Virg	-10212
▁alzó	-10213
▁chis	-10214
▁cone	-10215
▁deed	-10216
▁genu	-10217
▁loud	-10218
▁pico	-10219
▁poét	-10220
▁resc	-10221
▁saca	-10222
▁seda	-10223
▁site	-10224
▁zeal	-10225
Señora	-10226
▁Never	-10227
▁cabra	-10228
▁catch	-10229
▁efeto	-10230
▁faces	-10231
▁guest	-10232
▁guisa	-10233
▁midst	-10234
▁prosa	-10235
▁rayos	-10236
▁traen	-10237
▁views	-10238
cediano	-10239
liament	-10240
▁Alumni	-10241
▁Figura	-10242
▁Pelaez	-10243
▁Venice	-10244
▁borrow	-10245
▁clouds	-10246
▁corona	-10247
▁cuerdo	-10248
▁dinner	-10249
▁hearts	-10250
▁injust	-10251
▁mismas	-10252
▁morals	-10253
▁perlas	-10254
▁prodig	-10255
▁seized	-10256
▁serían	-10257
▁shells	-10258
▁summer	-10259
▁tratar	-10260
▁widely	-10261
ensiones	-10262
▁Indians	-10263
▁Richard	-10264
▁calidad	-10265
▁calling	-10266
▁cautivo	-10267
▁classic	-10268
▁estremo	-10269
▁ilustre	-10270
▁library	-10271
▁lloraba	-10272
▁pasando	-10273
▁pierced	-10274
▁sublime	-10275
▁useless	-10276
▁victory	-10277
▁viniese	-10278
▁vroeger	-10279
▁Cayetano	-10280
▁Literary	-10281
▁Lordship	-10282
▁accident	-10283
▁arrepent	-10284
▁classics	-10285
▁combined	-10286
▁faithful	-10287
▁resulted	-10288
▁superfic	-10289
▁elsewhere	-10290
▁sculpture	-10291
▁seguridad	-10292
▁explanation	-10293
Ab	-10294
Ed	-10295
Fr	-10296
IF	-10297
Pr	-10298
)_,	-10299
-16	-10300
OME	-10301
ady	-10302
bía	-10303
equ	-10304
ofd	-10305
éme	-10306
▁76	-10307
▁82	-10308
▁Ay	-10309
▁Fa	-10310
▁ik	-10311
anía	-10312
azar	-10313
bted	-10314
calá	-10315
cond	-10316
hall	-10317
head	-10318
mous	-10319
olía	-10320
rang	-10321
▁15,	-10322
▁Bes	-10323
▁Cec	-10324
▁Seg	-10325
▁sty	-10326
emple	-10327
endra	-10328
frica	-10329
inous	-10330
omach	-10331
▁Maur	-10332
▁Phys	-10333
▁Will	-10334
▁cobr	-10335
▁cola	-10336
▁demo	-10337
▁mest	-10338
▁mode	-10339
▁naam	-10340
▁narr	-10341
▁porf	-10342
▁psic	-10343
▁retr	-10344
▁rust	-10345
▁shut	-10346
▁stro	-10347
▁surg	-10348
▁tamb	-10349
▁tiro	-10350
▁usan	-10351
▁vrij	-10352
cierto	-10353
cribed	-10354
entado	-10355
▁Inter	-10356
▁ambos	-10357
▁apply	-10358
▁bands	-10359
▁clean	-10360
▁confl	-10361
▁crime	-10362
▁cuero	-10363
▁decis	-10364
▁edges	-10365
▁gallo	-10366
▁inher	-10367
▁moder	-10368
▁mozos	-10369
▁prose	-10370
▁queso	-10371
▁refug	-10372
▁revés	-10373
▁tempt	-10374
▁época	-10375
General	-10376
certain	-10377
▁Before	-10378
▁Berlín	-10379
▁Bosque	-10380
▁Frutos	-10381
▁Middle	-10382
▁Ovidio	-10383
▁Saturn	-10384
▁Volvió	-10385
▁agrade	-10386
▁agreed	-10387
▁carved	-10388
▁dulces	-10389
▁flight	-10390
▁fuente	-10391
▁metido	-10392
▁nación	-10393
▁pergam	-10394
▁preach	-10395
▁precio	-10396
▁severe	-10397
▁tocaba	-10398
▁vuelve	-10399
atherine	-10400
▁bearing	-10401
▁eternal	-10402
▁explain	-10403
▁extreme	-10404
▁gritaba	-10405
▁haberse	-10406
▁instant	-10407
▁intento	-10408
▁magistr	-10409
▁milagro	-10410
▁obscuro	-10411
▁prepare	-10412
▁reconoc	-10413
▁refined	-10414
▁temblor	-10415
▁tomando	-10416
▁waarvan	-10417
▁willing	-10418
itaciones	-10419
▁Cabesang	-10420
▁Makaraig	-10421
▁abiertos	-10422
▁cantidad	-10423
▁hallaron	-10424
▁majority	-10425
▁measures	-10426
▁pequeños	-10427
▁previous	-10428
▁sorpresa	-10429
▁teniendo	-10430
▁transpar	-10431
▁términos	-10432
▁entrambos	-10433
▁neighbour	-10434
▁ocasiones	-10435
▁performed	-10436
▁primitive	-10437
▁prometido	-10438
▁prudencia	-10439
▁separated	-10440
▁encouraged	-10441
▁reputation	-10442
▁disappeared	-10443
▁acquaintance	-10444
▁fraternities	-10445
▁consciousness	-10446
',	-10447
[9	-10448
_?	-10449
Cor	-10450
eks	-10451
far	-10452
ijf	-10453
kte	-10454
pol	-10455
▁(2	-10456
▁7,	-10457
▁75	-10458
▁Rh	-10459
▁ly	-10460
ANCE	-10461
ague	-10462
atur	-10463
ieze	-10464
inen	-10465
noff	-10466
▁(15	-10467
▁102	-10468
▁137	-10469
▁176	-10470
▁=--	-10471
▁Ass	-10472
▁Mos	-10473
▁Mrs	-10474
▁NEW	-10475
▁PRO	-10476
▁ara	-10477
▁bek	-10478
▁bue	-10479
▁cha	-10480
▁cow	-10481
▁ing	-10482
▁rue	-10483
▁von	-10484
Pobre	-10485
arias	-10486
ector	-10487
enden	-10488
haped	-10489
pique	-10490
right	-10491
teras	-10492
teros	-10493
there	-10494
uchas	-10495
▁Stre	-10496
▁brut	-10497
▁club	-10498
▁doch	-10499
▁dorp	-10500
▁erud	-10501
▁grey	-10502
▁guía	-10503
▁hath	-10504
▁hipó	-10505
▁holy	-10506
▁jaar	-10507
▁lean	-10508
▁leía	-10509
▁loss	-10510
▁pick	-10511
▁rows	-10512
▁sees	-10513
▁sole	-10514
▁thir	-10515
▁warn	-10516
istles	-10517
iteria	-10518
uestos	-10519
waarts	-10520
ándolo	-10521
▁Child	-10522
▁Clara	-10523
▁Revol	-10524
▁Sando	-10525
▁bears	-10526
▁broma	-10527
▁canta	-10528
▁casar	-10529
▁corps	-10530
▁cuyas	-10531
▁dende	-10532
▁falda	-10533
▁hallo	-10534
▁jaula	-10535
▁movía	-10536
▁propr	-10537
▁raise	-10538
▁retro	-10539
▁ruins	-10540
▁subía	-10541
▁teeth	-10542
▁terra	-10543
▁torpe	-10544
▁trade	-10545
▁valle	-10546
borough	-10547
ography	-10548
▁Ascham	-10549
▁Provid	-10550
▁aparte	-10551
▁castig	-10552
▁conson	-10553
▁crimen	-10554
▁descal	-10555
▁encend	-10556
▁encubr	-10557
▁faldas	-10558
▁fiebre	-10559
▁helped	-10560
▁humble	-10561
▁limpio	-10562
▁merece	-10563
▁pierna	-10564
▁resour	-10565
▁sonrió	-10566
▁tertul	-10567
▁thread	-10568
▁viejas	-10569
▁However	-10570
▁Paulita	-10571
▁albarda	-10572
▁article	-10573
▁caminar	-10574
▁comprom	-10575
▁discern	-10576
▁mandaba	-10577
▁officer	-10578
▁painted	-10579
▁preciso	-10580
▁quarter	-10581
▁secured	-10582
▁sesenta	-10583
▁vanidad	-10584
▁vestida	-10585
operation	-10586
▁bolsillo	-10587
▁claridad	-10588
▁contacto	-10589
▁convenía	-10590
▁edificio	-10591
▁hospital	-10592
▁marchaba	-10593
▁profunda	-10594
▁recordar	-10595
▁replaced	-10596
▁Arcediano	-10597
▁Catherine	-10598
▁despertar	-10599
▁discovery	-10600
▁esperaban	-10601
▁functions	-10602
▁muchachos	-10603
▁naturales	-10604
▁perfectly	-10605
▁preguntar	-10606
▁reconocer	-10607
▁sepultura	-10608
▁seriously	-10609
▁Laboratory	-10610
▁approached	-10611
▁comprender	-10612
▁relaciones	-10613
▁simplicity	-10614
▁destruction	-10615
▁institutions	-10616
▁comparatively	-10617
▁consideration	-10618
Cr	-10619
Ex	-10620
OV	-10621
VI	-10622
ni	-10623
Cat	-10624
Hay	-10625
Man	-10626
adv	-10627
att	-10628
hol	-10629
isi	-10630
pts	-10631
▁AB	-10632
▁GR	-10633
▁»¡	-10634
▁»—	-10635
".--	-10636
acas	-10637
arne	-10638
caso	-10639
cery	-10640
ciar	-10641
ecir	-10642
ieso	-10643
vang	-10644
▁107	-10645
▁20.	-10646
▁Aud	-10647
▁Dio	-10648
▁Obs	-10649
▁Sta	-10650
▁tib	-10651
citos	-10652
inity	-10653
iroga	-10654
izaba	-10655
izada	-10656
menes	-10657
▁Call	-10658
▁Cent	-10659
▁Cerv	-10660
▁Laur	-10661
▁Lion	-10662
▁PAGE	-10663
▁Pier	-10664
▁acus	-10665
▁adap	-10666
▁caía	-10667
▁deny	-10668
▁echa	-10669
▁empt	-10670
▁huge	-10671
▁juez	-10672
▁leyó	-10673
▁mord	-10674
▁ruso	-10675
▁shap	-10676
▁tube	-10677
▁worn	-10678
Cuándo	-10679
ecause	-10680
idores	-10681
rolled	-10682
▁Entró	-10683
▁Graaf	-10684
▁Laird	-10685
▁Later	-10686
▁Tcher	-10687
▁adere	-10688
▁almoh	-10689
▁arena	-10690
▁aside	-10691
▁calma	-10692
▁cared	-10693
▁comod	-10694
▁demon	-10695
▁digas	-10696
▁doble	-10697
▁famos	-10698
▁gates	-10699
▁grito	-10700
▁guerr	-10701
▁haven	-10702
▁nueve	-10703
▁prome	-10704
▁quise	-10705
▁shoot	-10706
▁simpl	-10707
▁varón	-10708
▁vicio	-10709
▁width	-10710
▁éstas	-10711
amentos	-10712
aración	-10713
▁Prince	-10714
▁amigas	-10715
▁asking	-10716
▁aument	-10717
▁behold	-10718
▁beside	-10719
▁descom	-10720
▁duques	-10721
▁escrúp	-10722
▁herido	-10723
▁imprud	-10724
▁issued	-10725
▁mayord	-10726
▁papers	-10727
▁relief	-10728
▁safety	-10729
▁siente	-10730
▁struck	-10731
▁subter	-10732
▁tienda	-10733
▁verdes	-10734
contestó	-10735
ervation	-10736
ymnasium	-10737
▁Granada	-10738
▁Western	-10739
▁abierta	-10740
▁agravio	-10741
▁blancos	-10742
▁contaba	-10743
▁contigo	-10744
▁crédito	-10745
▁display	-10746
▁evident	-10747
▁monarch	-10748
▁parties	-10749
▁propuso	-10750
▁solemne	-10751
▁supiera	-10752
▁suspect	-10753
▁tendido	-10754
▁witness	-10755
▁Cardinal	-10756
▁Castilla	-10757
▁atrevido	-10758
▁castigar	-10759
▁confesor	-10760
▁contenta	-10761
▁continue	-10762
▁educator	-10763
▁finished	-10764
▁gracioso	-10765
▁graduate	-10766
▁incorpor	-10767
▁instinto	-10768
▁llorando	-10769
▁negocios	-10770
▁overlook	-10771
▁poniendo	-10772
▁presentó	-10773
▁prisoner	-10774
▁specimen	-10775
▁Tchernoff	-10776
▁compelled	-10777
▁dispuesto	-10778
▁fortaleza	-10779
▁pilasters	-10780
▁profesión	-10781
▁prominent	-10782
▁siguiendo	-10783
▁tentación	-10784
▁tranquilo	-10785
▁Parliament	-10786
▁continuous	-10787
▁diferentes	-10788
▁honestidad	-10789
▁supporting	-10790
▁Carraspique	-10791
▁description	-10792
▁embellished	-10793
▁ARCHITECTURE	-10794
Cy	-10795
áf	-10796
-2:	-10797
4).	-10798
ASS	-10799
Car	-10800
END	-10801
ais	-10802
fet	-10803
ims	-10804
ols	-10805
two	-10806
álo	-10807
▁63	-10808
▁69	-10809
▁73	-10810
▁BE	-10811
▁hú	-10812
.”[1	-10813
Aquí	-10814
adeo	-10815
como	-10816
cula	-10817
iche	-10818
ijen	-10819
phia	-10820
rosa	-10821
uman	-10822
▁Cur	-10823
▁Dos	-10824
▁Ent	-10825
▁Rog	-10826
▁Sep	-10827
▁Wal	-10828
▁apo	-10829
▁díj	-10830
▁fui	-10831
▁row	-10832
▁sex	-10833
▁vía	-10834
eding	-10835
endar	-10836
hacer	-10837
house	-10838
icias	-10839
inate	-10840
ittee	-10841
olate	-10842
ughed	-10843
umber	-10844
zadas	-10845
▁Mort	-10846
▁Páez	-10847
▁SAIN	-10848
▁atal	-10849
▁avar	-10850
▁azot	-10851
▁bath	-10852
▁cera	-10853
▁dism	-10854
▁hoog	-10855
▁join	-10856
▁loft	-10857
▁mane	-10858
▁moon	-10859
▁mula	-10860
▁pobl	-10861
▁sell	-10862
▁sket	-10863
▁spar	-10864
▁succ	-10865
▁vary	-10866
Parrón	-10867
blance	-10868
ificar	-10869
ulture	-10870
▁Antes	-10871
▁Judge	-10872
▁Order	-10873
▁Still	-10874
▁ancho	-10875
▁avail	-10876
▁aviso	-10877
▁daría	-10878
▁duros	-10879
▁ident	-10880
▁legal	-10881
▁limos	-10882
▁notes	-10883
▁ponga	-10884
▁protr	-10885
▁psych	-10886
▁scale	-10887
▁techo	-10888
▁templ	-10889
▁thank	-10890
▁using	-10891
▁wings	-10892
▁yerba	-10893
fulness	-10894
ándolos	-10895
▁Alcalá	-10896
▁Lacour	-10897
▁Levant	-10898
▁causes	-10899
▁choice	-10900
▁confir	-10901
▁corrió	-10902
▁deeply	-10903
▁econom	-10904
▁govern	-10905
▁imitar	-10906
▁instal	-10907
▁largos	-10908
▁lienzo	-10909
▁moneda	-10910
▁orejas	-10911
▁partir	-10912
▁peregr	-10913
▁pintor	-10914
▁produc	-10915
▁provoc	-10916
▁quedan	-10917
▁regalo	-10918
▁repart	-10919
▁seated	-10920
▁spaces	-10921
▁vivían	-10922
▁Alfonso	-10923
▁aficion	-10924
▁cuentas	-10925
▁donaire	-10926
▁dándole	-10927
▁extraño	-10928
▁finding	-10929
▁fingers	-10930
▁furioso	-10931
▁hiciera	-10932
▁honrado	-10933
▁largest	-10934
▁mancebo	-10935
▁nervios	-10936
▁obliged	-10937
▁passion	-10938
▁pintado	-10939
▁trained	-10940
▁wounded	-10941
▁Sandoval	-10942
▁attained	-10943
▁carriage	-10944
▁darkness	-10945
▁devoción	-10946
▁estrecha	-10947
▁extravag	-10948
▁frequent	-10949
▁interven	-10950
▁occurred	-10951
▁promesas	-10952
▁saliendo	-10953
▁stronger	-10954
▁strongly	-10955
▁temiendo	-10956
▁temprano	-10957
▁victoria	-10958
▁abandoned	-10959
▁automóvil	-10960
▁horizonte	-10961
▁permitted	-10962
▁residence	-10963
▁surprised	-10964
▁Christians	-10965
▁confidence	-10966
▁protection	-10967
▁revolution	-10968
▁subsequent	-10969
▁suggestion	-10970
▁contributed	-10971
▁engineering	-10972
▁organizations	-10973
ae	-10974
sí	-10975
uo	-10976
wl	-10977
8).	-10978
HED	-10979
New	-10980
eos	-10981
fre	-10982
iam	-10983
nar	-10984
org	-10985
phe	-10986
vre	-10987
çeb	-10988
ñar	-10989
ócr	-10990
▁64	-10991
▁AP	-10992
▁ES	-10993
▁Ko	-10994
▁za	-10995
▁ál	-10996
When	-10997
_...	-10998
aton	-10999
avan	-11000
dese	-11001
ieta	-11002
iors	-11003
iota	-11004
izes	-11005
pass	-11006
rous	-11007
ster	-11008
urre	-11009
usal	-11010
ítez	-11011
▁(16	-11012
▁(17	-11013
▁136	-11014
▁16,	-11015
▁166	-11016
▁178	-11017
▁19.	-11018
▁Eas	-11019
▁Gal	-11020
▁Jun	-11021
▁Luc	-11022
▁Mac	-11023
▁Nic	-11024
▁Pod	-11025
▁Sab	-11026
▁Vió	-11027
▁Who	-11028
▁aux	-11029
▁bár	-11030
▁dix	-11031
brica	-11032
erage	-11033
estar	-11034
icote	-11035
night	-11036
schap	-11037
tener	-11038
▁Mino	-11039
▁Part	-11040
▁blas	-11041
▁caña	-11042
▁didn	-11043
▁embo	-11044
▁lake	-11045
▁leap	-11046
▁mans	-11047
▁nous	-11048
▁pala	-11049
▁soil	-11050
▁tela	-11051
▁unus	-11052
▁usur	-11053
▁veje	-11054
adoras	-11055
aremos	-11056
father	-11057
shaped	-11058
uestas	-11059
worthy	-11060
ámonos	-11061
▁About	-11062
▁April	-11063
▁Norte	-11064
▁Since	-11065
▁Sturm	-11066
▁acuer	-11067
▁alive	-11068
▁artes	-11069
▁banco	-11070
▁bread	-11071
▁comet	-11072
▁devor	-11073
▁dread	-11074
▁débil	-11075
▁enorm	-11076
▁gifts	-11077
▁hallé	-11078
▁lasci	-11079
▁multi	-11080
▁oidor	-11081
▁oprim	-11082
▁secur	-11083
▁tabla	-11084
▁tombs	-11085
▁waves	-11086
▁zijne	-11087
ensions	-11088
riculum	-11089
▁Amadís	-11090
▁Father	-11091
▁Michel	-11092
▁Ursula	-11093
▁anunci	-11094
▁ceased	-11095
▁corral	-11096
▁credit	-11097
▁desesp	-11098
▁echaba	-11099
▁eenige	-11100
▁estará	-11101
▁firmly	-11102
▁lights	-11103
▁llenas	-11104
▁pechos	-11105
▁prayer	-11106
▁propor	-11107
▁seldom	-11108
▁slaves	-11109
▁territ	-11110
▁Benítez	-11111
▁Fathers	-11112
▁Majesty	-11113
▁Parecía	-11114
▁andaban	-11115
▁cabezas	-11116
▁campaña	-11117
▁casarse	-11118
▁cuadros	-11119
▁demostr	-11120
▁figuras	-11121
▁gelegen	-11122
▁huyendo	-11123
▁outline	-11124
▁patient	-11125
▁propias	-11126
▁queréis	-11127
▁reality	-11128
▁records	-11129
▁regards	-11130
▁supreme	-11131
▁villano	-11132
▁Benedict	-11133
▁Bradford	-11134
▁Quiteria	-11135
▁comedias	-11136
▁concentr	-11137
▁contains	-11138
▁demonstr	-11139
▁despecho	-11140
▁estrecho	-11141
▁external	-11142
▁football	-11143
▁humildad	-11144
▁imposing	-11145
▁quisiese	-11146
▁uniforme	-11147
▁Philosoph	-11148
▁corriendo	-11149
▁interpret	-11150
▁pergamino	-11151
▁physician	-11152
▁población	-11153
▁possessed	-11154
▁propiedad	-11155
▁prosiguió	-11156
▁sonriendo	-11157
▁Excelencia	-11158
▁assistance	-11159
▁cathedrals	-11160
▁desdichado	-11161
▁grandísimo	-11162
▁inevitable	-11163
▁consiguiente	-11164
.?	-11165
?'	-11166
hí	-11167
ée	-11168
▁x	-11169
MAN	-11170
RIM	-11171
así	-11172
bur	-11173
enn	-11174
ipr	-11175
ocr	-11176
win	-11177
▁62	-11178
▁78	-11179
▁AM	-11180
▁BU	-11181
▁TR	-11182
acha	-11183
aken	-11184
alos	-11185
bell	-11186
ecen	-11187
erle	-11188
fall	-11189
leta	-11190
ollo	-11191
orce	-11192
oros	-11193
pros	-11194
udar	-11195
ícil	-11196
▁103	-11197
▁114	-11198
▁145	-11199
▁177	-11200
▁412	-11201
▁COL	-11202
▁adh	-11203
▁bañ	-11204
▁cuy	-11205
▁feo	-11206
▁lac	-11207
▁luc	-11208
▁roc	-11209
abuco	-11210
adera	-11211
esión	-11212
gante	-11213
inson	-11214
ption	-11215
ulate	-11216
uster	-11217
ánica	-11218
órica	-11219
▁Cres	-11220
▁ages	-11221
▁boat	-11222
▁copa	-11223
▁cruj	-11224
▁crít	-11225
▁embr	-11226
▁fest	-11227
▁hipo	-11228
▁horn	-11229
▁luen	-11230
▁maid	-11231
▁mate	-11232
▁pago	-11233
▁rojo	-11234
ardens	-11235
ctober	-11236
endent	-11237
erness	-11238
iating	-11239
ifying	-11240
itudes	-11241
mación	-11242
▁Banco	-11243
▁Dolor	-11244
▁Guard	-11245
▁Mouse	-11246
▁Plato	-11247
▁alfor	-11248
▁ancas	-11249
▁barco	-11250
▁beach	-11251
▁besta	-11252
▁brave	-11253
▁corto	-11254
▁diera	-11255
▁dying	-11256
▁húmed	-11257
▁irres	-11258
▁nombr	-11259
▁preso	-11260
▁retor	-11261
▁rumor	-11262
▁salto	-11263
▁stars	-11264
▁sufic	-11265
▁talle	-11266
▁vigil	-11267
▁worst	-11268
uciones	-11269
▁Public	-11270
▁Street	-11271
▁abuelo	-11272
▁acercó	-11273
▁amparo	-11274
▁bestia	-11275
▁bronce	-11276
▁ciento	-11277
▁convin	-11278
▁cortés	-11279
▁dejase	-11280
▁dijera	-11281
▁discut	-11282
▁explos	-11283
▁famosa	-11284
▁fatiga	-11285
▁librar	-11286
▁libres	-11287
▁ligero	-11288
▁llegue	-11289
▁lowest	-11290
▁market	-11291
▁molino	-11292
▁montes	-11293
▁pereza	-11294
▁persec	-11295
▁remind	-11296
▁semana	-11297
▁volume	-11298
▁Nothing	-11299
▁conceal	-11300
▁confuso	-11301
▁cuerdas	-11302
▁destiny	-11303
▁estable	-11304
▁hallaba	-11305
▁imagine	-11306
▁medical	-11307
▁montaña	-11308
▁pobreza	-11309
▁prosper	-11310
▁puestos	-11311
▁reduced	-11312
▁Bothwell	-11313
▁Mauricio	-11314
▁admirado	-11315
▁aparecía	-11316
▁apparent	-11317
▁capítulo	-11318
▁charming	-11319
▁colleges	-11320
▁comprend	-11321
▁filósofo	-11322
▁grandeur	-11323
▁inclined	-11324
▁industry	-11325
▁ladrones	-11326
▁porvenir	-11327
▁precious	-11328
▁probable	-11329
▁prudente	-11330
▁ventanas	-11331
▁wretched	-11332
ifications	-11333
▁Saturnino	-11334
▁dirección	-11335
▁explained	-11336
▁invisible	-11337
▁mayordomo	-11338
▁qualities	-11339
▁Marquesito	-11340
▁artillería	-11341
▁attributed	-11342
▁comparison	-11343
▁remembered	-11344
▁satisfacer	-11345
▁appointment	-11346
▁accomplished	-11347
▁constitution	-11348
▁remordimiento	-11349
90	-11350
ICH	-11351
IES	-11352
RAL	-11353
abs	-11354
aks	-11355
hor	-11356
igd	-11357
jan	-11358
sab	-11359
unk	-11360
▁ED	-11361
▁SC	-11362
▁SP	-11363
▁ec	-11364
Vaya	-11365
acía	-11366
cope	-11367
eper	-11368
erto	-11369
gens	-11370
gest	-11371
inco	-11372
inus	-11373
prim	-11374
reek	-11375
ueva	-11376
▁22.	-11377
▁Fur	-11378
▁MOR	-11379
▁Mer	-11380
▁XII	-11381
▁cob	-11382
▁cup	-11383
▁ray	-11384
▁rro	-11385
▁sap	-11386
▁vil	-11387
▁áng	-11388
asons	-11389
ecess	-11390
ecida	-11391
erves	-11392
heart	-11393
oring	-11394
▁Empe	-11395
▁Espe	-11396
▁Know	-11397
▁Serv	-11398
▁adul	-11399
▁apla	-11400
▁bare	-11401
▁culp	-11402
▁diff	-11403
▁dram	-11404
▁dust	-11405
▁exch	-11406
▁impa	-11407
▁laat	-11408
▁notó	-11409
▁pese	-11410
▁rres	-11411
▁scat	-11412
▁seat	-11413
▁sopl	-11414
▁suav	-11415
▁vidr	-11416
▁wand	-11417
ambers	-11418
asting	-11419
grafía	-11420
iestas	-11421
inetes	-11422
▁Imper	-11423
▁Loren	-11424
▁Mayor	-11425
▁SAINT	-11426
▁ajena	-11427
▁aturd	-11428
▁corro	-11429
▁dared	-11430
▁desar	-11431
▁embod	-11432
▁enojo	-11433
▁ensue	-11434
▁escar	-11435
▁estir	-11436
▁facil	-11437
▁fancy	-11438
▁guide	-11439
▁hueso	-11440
▁limit	-11441
▁repit	-11442
▁resuc	-11443
▁rubia	-11444
▁sangr	-11445
▁saque	-11446
▁seman	-11447
▁shame	-11448
▁spend	-11449
▁weder	-11450
▁yelmo	-11451
anthrop	-11452
ensible	-11453
▁Apenas	-11454
▁arrojó	-11455
▁batall	-11456
▁breves	-11457
▁calaba	-11458
▁center	-11459
▁cuerda	-11460
▁fabric	-11461
▁monjas	-11462
▁montón	-11463
▁olvido	-11464
▁pedazo	-11465
▁prados	-11466
▁prejud	-11467
▁rights	-11468
▁strict	-11469
▁writes	-11470
▁Leonela	-11471
▁Quiroga	-11472
▁Vuestra	-11473
▁absence	-11474
▁amantes	-11475
▁cañones	-11476
▁cobarde	-11477
▁complex	-11478
▁concern	-11479
▁dischar	-11480
▁engañar	-11481
▁exclamó	-11482
▁famosos	-11483
▁lacking	-11484
▁novelas	-11485
▁prision	-11486
▁prisión	-11487
▁progres	-11488
▁rostros	-11489
▁torment	-11490
▁volumes	-11491
▁December	-11492
▁ambiente	-11493
▁consiste	-11494
▁cubierto	-11495
▁dignidad	-11496
▁guardaba	-11497
▁mathemat	-11498
▁parallel	-11499
▁quedarse	-11500
▁riquezas	-11501
▁selected	-11502
▁suspiros	-11503
▁traición	-11504
▁Christmas	-11505
▁affection	-11506
▁concealed	-11507
▁contained	-11508
▁cristales	-11509
▁estuviera	-11510
▁imperfect	-11511
▁invention	-11512
▁religiosa	-11513
▁returning	-11514
▁directions	-11515
▁elementary	-11516
▁responsible	-11517
▁nevertheless	-11518
▁requirements	-11519
▁circunstancias	-11520
▁notwithstanding	-11521
Ca	-11522
OB	-11523
RY	-11524
di	-11525
gn	-11526
hu	-11527
sp	-11528
asa	-11529
fel	-11530
put	-11531
uma	-11532
uwe	-11533
you	-11534
▁AS	-11535
▁bó	-11536
Está	-11537
Nada	-11538
abas	-11539
alia	-11540
emen	-11541
erio	-11542
eses	-11543
ethe	-11544
igre	-11545
inde	-11546
itus	-11547
quil	-11548
road	-11549
rows	-11550
teza	-11551
uede	-11552
uele	-11553
urer	-11554
uros	-11555
uste	-11556
íale	-11557
▁138	-11558
▁Art	-11559
▁Bat	-11560
▁DON	-11561
▁Hub	-11562
▁Nav	-11563
▁Pay	-11564
▁Sto	-11565
▁Win	-11566
▁Yes	-11567
▁cae	-11568
▁fís	-11569
▁omn	-11570
▁wet	-11571
▁yes	-11572
cones	-11573
eties	-11574
gaban	-11575
onado	-11576
ormal	-11577
peras	-11578
quito	-11579
▁(191	-11580
▁Frog	-11581
▁Home	-11582
▁Mand	-11583
▁aunt	-11584
▁bent	-11585
▁buit	-11586
▁cave	-11587
▁chor	-11588
▁dios	-11589
▁galo	-11590
▁hech	-11591
▁impl	-11592
▁kill	-11593
▁male	-11594
▁miel	-11595
▁ming	-11596
▁nobl	-11597
▁puño	-11598
▁sinc	-11599
▁sord	-11600
▁suma	-11601
▁wond	-11602
Cuánto	-11603
action	-11604
ancell	-11605
ciosos	-11606
edonio	-11607
ieblas	-11608
orment	-11609
render	-11610
usions	-11611
áronle	-11612
▁Quien	-11613
▁acero	-11614
▁armed	-11615
▁coger	-11616
▁curve	-11617
▁dress	-11618
▁empty	-11619
▁ended	-11620
▁incur	-11621
▁indul	-11622
▁infel	-11623
▁lengu	-11624
▁liber	-11625
▁mengu	-11626
▁pelea	-11627
▁podré	-11628
▁rabia	-11629
▁spots	-11630
▁traza	-11631
▁vacil	-11632
▁vejez	-11633
▁zapat	-11634
zobispo	-11635
ándoles	-11636
▁Crespo	-11637
▁Dynast	-11638
▁Muchas	-11639
▁Schild	-11640
▁Verdad	-11641
▁Virgin	-11642
▁ataque	-11643
▁bailar	-11644
▁brings	-11645
▁chapel	-11646
▁critic	-11647
▁discul	-11648
▁editor	-11649
▁entret	-11650
▁income	-11651
▁infame	-11652
▁medida	-11653
▁obispo	-11654
▁origen	-11655
▁paseos	-11656
▁polder	-11657
▁prince	-11658
▁prompt	-11659
▁purely	-11660
▁rarely	-11661
▁saints	-11662
▁saltar	-11663
▁sounds	-11664
▁strike	-11665
▁tardes	-11666
▁traged	-11667
▁Lorenzo	-11668
▁absurdo	-11669
▁arábigo	-11670
▁avergon	-11671
▁corrupt	-11672
▁criadas	-11673
▁depends	-11674
▁distant	-11675
▁dressed	-11676
▁examine	-11677
▁existed	-11678
▁façades	-11679
▁hanging	-11680
▁inaugur	-11681
▁laughed	-11682
▁leyendo	-11683
▁obvious	-11684
▁precept	-11685
▁pronoun	-11686
▁saberlo	-11687
▁semanas	-11688
▁servían	-11689
▁sevente	-11690
▁shallow	-11691
▁stomach	-11692
▁telling	-11693
▁touched	-11694
▁visited	-11695
▁volvían	-11696
---------	-11697
▁Napoleon	-11698
▁admiraba	-11699
▁cantando	-11700
▁commonly	-11701
▁conocían	-11702
▁contempt	-11703
▁cuidados	-11704
▁escuchar	-11705
▁fighting	-11706
▁formerly	-11707
▁gigantes	-11708
▁hipócrit	-11709
▁northern	-11710
▁pláticas	-11711
▁poderoso	-11712
▁pronunci	-11713
▁rendered	-11714
▁situated	-11715
▁slightly	-11716
▁sospecha	-11717
▁temblaba	-11718
▁temeroso	-11719
▁Alexander	-11720
▁exercised	-11721
▁extending	-11722
▁extensive	-11723
▁instances	-11724
▁instincts	-11725
▁respondía	-11726
▁señoritas	-11727
▁significa	-11728
▁sixteenth	-11729
▁comenzaron	-11730
▁commission	-11731
▁discussion	-11732
▁extranjero	-11733
▁profession	-11734
▁sacrificio	-11735
▁successive	-11736
▁professional	-11737
?,	-11738
UG	-11739
mi	-11740
-3:	-11741
._)	-11742
ARY	-11743
Del	-11744
Per	-11745
aro	-11746
cid	-11747
fra	-11748
omb	-11749
ref	-11750
set	-11751
yla	-11752
íes	-11753
▁"_	-11754
▁6,	-11755
▁77	-11756
▁CL	-11757
▁Di	-11758
▁Sm	-11759
▁Ze	-11760
▁ef	-11761
▁ná	-11762
INES	-11763
OSSE	-11764
agre	-11765
back	-11766
chap	-11767
curs	-11768
door	-11769
ione	-11770
lers	-11771
pled	-11772
sejo	-11773
urar	-11774
▁104	-11775
▁12,	-11776
▁148	-11777
▁21.	-11778
▁Clo	-11779
▁GOT	-11780
▁Sol	-11781
▁Str	-11782
▁Tan	-11783
▁alb	-11784
▁gun	-11785
▁spr	-11786
▁taj	-11787
bamos	-11788
cilla	-11789
enaam	-11790
irtió	-11791
istro	-11792
itors	-11793
quate	-11794
thren	-11795
ubled	-11796
▁Dame	-11797
▁Most	-11798
▁Poco	-11799
▁acre	-11800
▁acts	-11801
▁amaz	-11802
▁ampl	-11803
▁arma	-11804
▁beso	-11805
▁carb	-11806
▁cert	-11807
▁cita	-11808
▁clás	-11809
▁coat	-11810
▁dans	-11811
▁dará	-11812
▁drie	-11813
▁gewe	-11814
▁grav	-11815
▁inse	-11816
▁márm	-11817
▁rayo	-11818
▁roto	-11819
aduras	-11820
angelo	-11821
ection	-11822
encies	-11823
ension	-11824
ienden	-11825
iental	-11826
ivered	-11827
ormous	-11828
▁Pérez	-11829
▁Tadeo	-11830
▁amado	-11831
▁appla	-11832
▁aprob	-11833
▁behal	-11834
▁cease	-11835
▁curso	-11836
▁deeds	-11837
▁desea	-11838
▁exter	-11839
▁grues	-11840
▁impat	-11841
▁latín	-11842
▁muera	-11843
▁quarr	-11844
▁rests	-11845
▁sutil	-11846
▁threw	-11847
▁tyran	-11848
▁viera	-11849
▁vivos	-11850
▁vulgo	-11851
▁wants	-11852
▁yendo	-11853
▁Method	-11854
▁Morton	-11855
▁Secret	-11856
▁acomet	-11857
▁americ	-11858
▁calcul	-11859
▁cobrar	-11860
▁cuándo	-11861
▁espero	-11862
▁estrib	-11863
▁fallen	-11864
▁gestos	-11865
▁herida	-11866
▁impart	-11867
▁lluvia	-11868
▁medias	-11869
▁negras	-11870
▁passes	-11871
▁profit	-11872
▁puntos	-11873
▁repeat	-11874
▁reserv	-11875
▁sacado	-11876
▁sujeto	-11877
▁traían	-11878
▁vender	-11879
cionario	-11880
▁Trabuco	-11881
▁alcanza	-11882
▁asuntos	-11883
▁callaba	-11884
▁cazador	-11885
▁confirm	-11886
▁destino	-11887
▁difícil	-11888
▁elected	-11889
▁estaría	-11890
▁harmony	-11891
▁honrada	-11892
▁islands	-11893
▁opposed	-11894
▁outward	-11895
▁patriot	-11896
▁pañuelo	-11897
▁peoples	-11898
▁pública	-11899
▁recebir	-11900
▁rectang	-11901
▁shining	-11902
▁víctima	-11903
▁weather	-11904
▁últimas	-11905
prosiguió	-11906
▁Catholic	-11907
▁academic	-11908
▁borracho	-11909
▁concrete	-11910
▁despertó	-11911
▁division	-11912
▁educated	-11913
▁emphasis	-11914
▁enclosed	-11915
▁glorious	-11916
▁horrible	-11917
▁hundreds	-11918
▁incident	-11919
▁lenguaje	-11920
▁memorial	-11921
▁minister	-11922
▁opinions	-11923
▁politics	-11924
▁secretos	-11925
▁sentence	-11926
▁splendid	-11927
▁vinieron	-11928
▁virtudes	-11929
▁volviese	-11930
▁Cervantes	-11931
▁acknowled	-11932
▁carretera	-11933
▁entendido	-11934
▁invención	-11935
▁maravilla	-11936
▁proceeded	-11937
▁reverence	-11938
▁thousands	-11939
▁tinieblas	-11940
▁Commission	-11941
▁importante	-11942
▁influences	-11943
▁levantarse	-11944
▁sentiments	-11945
▁espectáculo	-11946
▁satisfaction	-11947
▁perpendicular	-11948
▁responsibility	-11949
3)	-11950
eh	-11951
sk	-11952
ég	-11953
▁]	-11954
---	-11955
--¡	-11956
50.	-11957
ICE	-11958
Lib	-11959
Pho	-11960
dar	-11961
nex	-11962
ods	-11963
pie	-11964
uts	-11965
war	-11966
zgo	-11967
▁Tu	-11968
!--¡	-11969
ARLY	-11970
Bibl	-11971
They	-11972
bing	-11973
cest	-11974
chor	-11975
comp	-11976
guen	-11977
iang	-11978
igno	-11979
inty	-11980
isis	-11981
pues	-11982
rane	-11983
tage	-11984
upon	-11985
usos	-11986
utas	-11987
çipr	-11988
▁106	-11989
▁Age	-11990
▁Bay	-11991
▁Cos	-11992
▁Dem	-11993
▁Inf	-11994
▁Jer	-11995
▁Met	-11996
▁Pec	-11997
▁Sem	-11998
▁XVI	-11999
▁ade	-12000
▁azo	-12001
▁cro	-12002
▁erm	-12003
▁ged	-12004
▁lám	-12005
▁lím	-12006
▁niñ	-12007
▁nob	-12008
▁olv	-12009
▁reñ	-12010
▁tac	-12011
▁vay	-12012
▁vee	-12013
cking	-12014
dónde	-12015
govia	-12016
iable	-12017
ieves	-12018
levar	-12019
▁Grad	-12020
▁Herr	-12021
▁Hunt	-12022
▁acto	-12023
▁ahog	-12024
▁bras	-12025
▁cens	-12026
▁cint	-12027
▁dare	-12028
▁eggs	-12029
▁flas	-12030
▁gale	-12031
▁hypo	-12032
▁init	-12033
▁mend	-12034
▁miem	-12035
▁palo	-12036
▁seco	-12037
▁stir	-12038
▁tabl	-12039
▁unex	-12040
▁vela	-12041
▁velo	-12042
Hombre	-12043
ateful	-12044
itorio	-12045
liness	-12046
ologne	-12047
▁PLATE	-12048
▁Venus	-12049
▁accur	-12050
▁ahorr	-12051
▁aires	-12052
▁apell	-12053
▁aplic	-12054
▁carre	-12055
▁cuyos	-12056
▁depth	-12057
▁enfor	-12058
▁esfor	-12059
▁frame	-12060
▁haces	-12061
▁halag	-12062
▁infan	-12063
▁luces	-12064
▁metaf	-12065
▁ramas	-12066
▁tornó	-12067
▁trial	-12068
▁vient	-12069
▁viven	-12070
History	-12071
utenant	-12072
▁Bishop	-12073
▁Robert	-12074
▁Sintió	-12075
▁advent	-12076
▁begged	-12077
▁beings	-12078
▁blanda	-12079
▁curved	-12080
▁cuánto	-12081
▁desvan	-12082
▁enviar	-12083
▁escudo	-12084
▁extrañ	-12085
▁fablar	-12086
▁fairly	-12087
▁formas	-12088
▁ilustr	-12089
▁ladies	-12090
▁lawyer	-12091
▁madrug	-12092
▁músico	-12093
▁onders	-12094
▁piezas	-12095
▁plants	-12096
▁talked	-12097
▁timber	-12098
▁traigo	-12099
▁venida	-12100
▁vuelva	-12101
esterday	-12102
▁Grammar	-12103
▁Saturno	-12104
▁Sevilla	-12105
▁Society	-12106
▁average	-12107
▁compare	-12108
▁deliver	-12109
▁destroy	-12110
▁encanto	-12111
▁genuine	-12112
▁gustaba	-12113
▁hacerme	-12114
▁imagino	-12115
▁journal	-12116
▁lantern	-12117
▁lectura	-12118
▁lenguas	-12119
▁manners	-12120
▁newspap	-12121
▁próxima	-12122
▁reasons	-12123
▁seguían	-12124
▁setting	-12125
▁sienpre	-12126
▁violent	-12127
▁whereas	-12128
▁alforjas	-12129
▁amarillo	-12130
▁capitals	-12131
▁ciudades	-12132
▁cuadrill	-12133
▁deshonra	-12134
▁enormous	-12135
▁lectures	-12136
▁ocurrido	-12137
▁southern	-12138
▁watching	-12139
▁whenever	-12140
▁companion	-12141
▁conseguir	-12142
▁desprecio	-12143
▁escondido	-12144
▁filosofía	-12145
▁queriendo	-12146
▁statement	-12147
▁tranquila	-12148
▁claramente	-12149
▁curriculum	-12150
▁encantador	-12151
▁fraternity	-12152
▁personajes	-12153
▁movimientos	-12154
▁Michelangelo	-12155
▁extraordinar	-12156
▁satisfacción	-12157
EZ	-12158
IB	-12159
IX	-12160
PT	-12161
ka	-12162
kt	-12163
-4:	-12164
Cal	-12165
Col	-12166
LES	-12167
THE	-12168
Tal	-12169
ctr	-12170
cus	-12171
nam	-12172
neg	-12173
sar	-12174
vía	-12175
▁(4	-12176
▁5:	-12177
▁68	-12178
▁IS	-12179
▁Vo	-12180
▁éx	-12181
000,	-12182
Este	-12183
LAND	-12184
azzo	-12185
ests	-12186
etos	-12187
iced	-12188
imil	-12189
mann	-12190
oler	-12191
udia	-12192
ulis	-12193
ulus	-12194
▁Dam	-12195
▁Ful	-12196
▁adj	-12197
▁aug	-12198
▁caj	-12199
▁das	-12200
▁duc	-12201
▁jub	-12202
▁pin	-12203
abled	-12204
anted	-12205
astre	-12206
enpre	-12207
gamos	-12208
innen	-12209
odern	-12210
ommod	-12211
ossal	-12212
ranes	-12213
rique	-12214
stone	-12215
woord	-12216
ónico	-12217
▁--«¡	-12218
▁Asia	-12219
▁Cide	-12220
▁Knox	-12221
▁aang	-12222
▁adem	-12223
▁ases	-12224
▁bald	-12225
▁beat	-12226
▁chem	-12227
▁deve	-12228
▁dime	-12229
▁enci	-12230
▁espl	-12231
▁flan	-12232
▁geme	-12233
▁hole	-12234
▁lamp	-12235
▁muda	-12236
▁paja	-12237
▁quin	-12238
▁rain	-12239
▁rara	-12240
▁rele	-12241
▁tear	-12242
▁trág	-12243
▁weap	-12244
▁wear	-12245
▁wing	-12246
▁zood	-12247
HEDRAL	-12248
icians	-12249
icioso	-12250
istics	-12251
lement	-12252
thenon	-12253
tongue	-12254
unicip	-12255
ástica	-12256
▁Emper	-12257
▁Kings	-12258
▁Salió	-12259
▁afirm	-12260
▁alarm	-12261
▁botas	-12262
▁bóved	-12263
▁coleg	-12264
▁congo	-12265
▁disgu	-12266
▁encam	-12267
▁exalt	-12268
▁feels	-12269
▁hills	-12270
▁homes	-12271
▁joyas	-12272
▁judic	-12273
▁jurar	-12274
▁lloró	-12275
▁mando	-12276
▁plato	-12277
▁plebe	-12278
▁quitó	-12279
▁races	-12280
▁realm	-12281
▁resto	-12282
▁shout	-12283
▁usaba	-12284
▁vengo	-12285
▁vizca	-12286
▁woods	-12287
iéronle	-12288
ression	-12289
▁Chapel	-12290
▁GOTHIC	-12291
▁Having	-12292
▁Louvre	-12293
▁algeme	-12294
▁artist	-12295
▁azúcar	-12296
▁celada	-12297
▁centro	-12298
▁clergy	-12299
▁cárcel	-12300
▁devote	-12301
▁eleven	-12302
▁endure	-12303
▁exists	-12304
▁guitar	-12305
▁happen	-12306
▁imprim	-12307
▁lejano	-12308
▁maldad	-12309
▁molido	-12310
▁poetry	-12311
▁sueños	-12312
▁supply	-12313
▁vendrá	-12314
ometimes	-12315
▁Capitol	-12316
▁Trifald	-12317
▁anxious	-12318
▁aquélla	-12319
▁arrival	-12320
▁artista	-12321
▁autores	-12322
▁bastaba	-12323
▁cerrado	-12324
▁emperor	-12325
▁empresa	-12326
▁enabled	-12327
▁fermosa	-12328
▁forzoso	-12329
▁galeras	-12330
▁gallard	-12331
▁genoemd	-12332
▁journey	-12333
▁mission	-12334
▁monstru	-12335
▁octagon	-12336
▁olvidar	-12337
▁palaces	-12338
▁podemos	-12339
▁proclam	-12340
▁revenge	-12341
▁revival	-12342
▁sixteen	-12343
▁suceder	-12344
▁suspend	-12345
▁talento	-12346
▁whisper	-12347
icaciones	-12348
▁Assyrian	-12349
▁Memorial	-12350
▁antiguas	-12351
▁artistic	-12352
▁atorment	-12353
▁compadre	-12354
▁disposed	-12355
▁district	-12356
▁informed	-12357
▁laughter	-12358
▁monaster	-12359
▁montañas	-12360
▁moreover	-12361
▁necesito	-12362
▁passions	-12363
▁prosigue	-12364
▁CATHEDRAL	-12365
▁Celedonio	-12366
▁compuesto	-12367
▁consisted	-12368
▁converted	-12369
▁curiosity	-12370
▁izquierda	-12371
▁labradora	-12372
▁movements	-12373
▁preguntas	-12374
▁príncipes	-12375
▁admiration	-12376
▁conclusion	-12377
▁historical	-12378
▁threatened	-12379
▁intelligent	-12380
▁necessarily	-12381
▁recognition	-12382
▁representing	-12383
▁philosophical	-12384
12	-12385
hy	-12386
ru	-12387
ró	-12388
óv	-12389
--¿	-12390
1).	-12391
Bah	-12392
OOD	-12393
OUN	-12394
OUS	-12395
VER	-12396
alg	-12397
alk	-12398
bru	-12399
irá	-12400
itz	-12401
iál	-12402
say	-12403
she	-12404
uía	-12405
▁'5	-12406
▁74	-12407
▁88	-12408
▁AD	-12409
▁FL	-12410
▁WH	-12411
▁oh	-12412
▁ás	-12413
REST	-12414
cada	-12415
chts	-12416
gers	-12417
good	-12418
guir	-12419
llas	-12420
ogue	-12421
omos	-12422
onar	-12423
phen	-12424
sten	-12425
unal	-12426
▁18,	-12427
▁300	-12428
▁Bon	-12429
▁Ger	-12430
▁Hur	-12431
▁Ley	-12432
▁Pan	-12433
▁Sib	-12434
▁alh	-12435
▁enl	-12436
▁iss	-12437
▁kno	-12438
▁scr	-12439
▁tar	-12440
ambur	-12441
amete	-12442
antua	-12443
asant	-12444
avent	-12445
gende	-12446
había	-12447
ieras	-12448
isure	-12449
itiva	-12450
oroso	-12451
pless	-12452
quete	-12453
rough	-12454
uales	-12455
ónica	-12456
▁Hist	-12457
▁Otro	-12458
▁Past	-12459
▁Vino	-12460
▁Wood	-12461
▁abre	-12462
▁baño	-12463
▁enam	-12464
▁pull	-12465
▁salí	-12466
▁simp	-12467
▁trou	-12468
▁vara	-12469
Adónde	-12470
IGHTON	-12471
omares	-12472
plaats	-12473
▁Bacon	-12474
▁GOSSE	-12475
▁Lords	-12476
▁Stone	-12477
▁Tomás	-12478
▁abría	-12479
▁atado	-12480
▁besos	-12481
▁cheer	-12482
▁decre	-12483
▁doesn	-12484
▁fidel	-12485
▁flaco	-12486
▁halls	-12487
▁hoofd	-12488
▁jaren	-12489
▁legua	-12490
▁meter	-12491
▁monot	-12492
▁moría	-12493
▁pasan	-12494
▁pater	-12495
▁plate	-12496
▁price	-12497
▁produ	-12498
▁quede	-12499
▁resid	-12500
▁tired	-12501
▁vacío	-12502
idumbre	-12503
ántigas	-12504
▁Goethe	-12505
▁Habían	-12506
▁Hamete	-12507
▁Provin	-12508
▁Señora	-12509
▁adónde	-12510
▁asombr	-12511
▁ayudar	-12512
▁brutal	-12513
▁capell	-12514
▁casada	-12515
▁colonn	-12516
▁desliz	-12517
▁exager	-12518
▁finger	-12519
▁fitted	-12520
▁fresca	-12521
▁improv	-12522
▁infant	-12523
▁inward	-12524
▁juzgar	-12525
▁lately	-12526
▁lector	-12527
▁manusc	-12528
▁mirado	-12529
▁parent	-12530
▁presid	-12531
▁recall	-12532
▁reward	-12533
▁tablas	-12534
▁tercio	-12535
▁tienpo	-12536
▁triang	-12537
▁victor	-12538
position	-12539
▁Babylon	-12540
▁Fernand	-12541
▁Segovia	-12542
▁afición	-12543
▁arremet	-12544
▁atrevía	-12545
▁ausente	-12546
▁cerrada	-12547
▁cuartos	-12548
▁current	-12549
▁echando	-12550
▁encamin	-12551
▁expense	-12552
▁exposed	-12553
▁farther	-12554
▁fiestas	-12555
▁happens	-12556
▁holding	-12557
▁limited	-12558
▁mientes	-12559
▁miseric	-12560
▁objetos	-12561
▁ocultar	-12562
▁oportun	-12563
▁perdida	-12564
▁prendas	-12565
▁propios	-12566
▁sombras	-12567
▁venture	-12568
▁visitar	-12569
▁withdra	-12570
▁Although	-12571
▁LEIGHTON	-12572
▁November	-12573
▁accommod	-12574
▁ambición	-12575
▁belonged	-12576
▁descanso	-12577
▁devotion	-12578
▁distrust	-12579
▁garrison	-12580
▁internal	-12581
▁irresist	-12582
▁projects	-12583
▁referred	-12584
▁relación	-12585
▁resistir	-12586
▁retirada	-12587
Photograph	-12588
▁September	-12589
▁Victorina	-12590
▁camaradas	-12591
▁confusion	-12592
▁continuar	-12593
▁descubrir	-12594
▁elaborate	-12595
▁everybody	-12596
▁gratitude	-12597
▁imaginaba	-12598
▁juramento	-12599
▁servicios	-12600
▁subterrán	-12601
▁surrender	-12602
▁Literature	-12603
▁collection	-12604
▁contemplar	-12605
▁continuaba	-12606
▁diferencia	-12607
▁discipline	-12608
▁generation	-12609
▁ignorancia	-12610
▁professors	-12611
▁traditions	-12612
▁determinado	-12613
▁essentially	-12614
▁scholarship	-12615
▁significant	-12616
▁impertinente	-12617
▁instrumentos	-12618
▁specifically	-12619
▁desesperación	-12620
▁extraordinario	-12621
▁representatives	-12622
By	-12623
IO	-12624
Il	-12625
[2	-12626
dr	-12627
éc	-12628
.):	-12629
INE	-12630
ISS	-12631
ail	-12632
cut	-12633
eli	-12634
mus	-12635
oot	-12636
rap	-12637
▁IX	-12638
▁“_	-12639
Clar	-12640
ENCE	-12641
cuán	-12642
emed	-12643
erva	-12644
from	-12645
greg	-12646
hing	-12647
ilst	-12648
inge	-12649
kept	-12650
lymp	-12651
mans	-12652
olar	-12653
onen	-12654
rase	-12655
rota	-12656
teca	-12657
usca	-12658
usco	-12659
vere	-12660
will	-12661
ífic	-12662
▁14,	-12663
▁146	-12664
▁192	-12665
▁23.	-12666
▁Agr	-12667
▁Ast	-12668
▁Díg	-12669
▁ENG	-12670
▁MON	-12671
▁Spe	-12672
▁Wis	-12673
▁cán	-12674
▁lit	-12675
▁rit	-12676
▁tos	-12677
Janua	-12678
calle	-12679
cedió	-12680
cerse	-12681
cible	-12682
ented	-12683
fluen	-12684
icles	-12685
ijken	-12686
inito	-12687
vista	-12688
▁BROS	-12689
▁Busc	-12690
▁Dese	-12691
▁Upon	-12692
▁WITH	-12693
▁aper	-12694
▁asco	-12695
▁chir	-12696
▁conc	-12697
▁dejo	-12698
▁fill	-12699
▁gets	-12700
▁gift	-12701
▁guap	-12702
▁heap	-12703
▁jump	-12704
▁lodo	-12705
▁moll	-12706
▁orch	-12707
▁rays	-12708
▁rear	-12709
▁renc	-12710
▁rush	-12711
▁zelf	-12712
ancial	-12713
astero	-12714
ativos	-12715
hether	-12716
inence	-12717
verbal	-12718
írculo	-12719
▁----=	-12720
▁Madre	-12721
▁Payne	-12722
▁Scott	-12723
▁abras	-12724
▁angel	-12725
▁angle	-12726
▁angry	-12727
▁arque	-12728
▁arrim	-12729
▁aston	-12730
▁atrop	-12731
▁badly	-12732
▁corne	-12733
▁craft	-12734
▁dejan	-12735
▁divid	-12736
▁dudar	-12737
▁excus	-12738
▁exert	-12739
▁expos	-12740
▁flour	-12741
▁fonda	-12742
▁gazed	-12743
▁gesch	-12744
▁greet	-12745
▁imped	-12746
▁llevo	-12747
▁merry	-12748
▁mulas	-12749
▁ponen	-12750
▁pongo	-12751
▁prado	-12752
▁preca	-12753
▁smoke	-12754
▁valer	-12755
quences	-12756
▁Cicero	-12757
▁Minoan	-12758
▁Mosque	-12759
▁Pecson	-12760
▁Samuel	-12761
▁branch	-12762
▁buried	-12763
▁cadena	-12764
▁cement	-12765
▁delito	-12766
▁formid	-12767
▁geheel	-12768
▁gobier	-12769
▁grotes	-12770
▁huevos	-12771
▁knight	-12772
▁llamas	-12773
▁maldic	-12774
▁medios	-12775
▁moving	-12776
▁nearer	-12777
▁obtain	-12778
▁ostent	-12779
▁pagado	-12780
▁puente	-12781
▁quinta	-12782
▁reprod	-12783
▁statue	-12784
▁unable	-12785
▁zijnde	-12786
mmetries	-12787
çipreste	-12788
▁Algunas	-12789
▁Besides	-12790
▁Camacho	-12791
▁Eastern	-12792
▁Florent	-12793
▁Illustr	-12794
▁October	-12795
▁agujero	-12796
▁avenida	-12797
▁cantaba	-12798
▁chamber	-12799
▁condesa	-12800
▁dangers	-12801
▁demands	-12802
▁domingo	-12803
▁enterpr	-12804
▁escaped	-12805
▁failure	-12806
▁inmóvil	-12807
▁maraved	-12808
▁oración	-12809
▁pursuit	-12810
▁quality	-12811
▁quieras	-12812
▁renunci	-12813
▁riendas	-12814
▁secular	-12815
▁sosiego	-12816
▁talante	-12817
▁traidor	-12818
▁wanting	-12819
▁welcome	-12820
inaciones	-12821
▁Filipino	-12822
▁Gregorio	-12823
▁acometer	-12824
▁assigned	-12825
▁comercio	-12826
▁decision	-12827
▁definite	-12828
▁derechos	-12829
▁descuido	-12830
▁entendió	-12831
▁estrella	-12832
▁hermosas	-12833
▁necesita	-12834
▁pariente	-12835
▁presteza	-12836
▁príncipe	-12837
▁reconcil	-12838
▁refranes	-12839
▁retained	-12840
▁sabiendo	-12841
▁standard	-12842
▁surfaces	-12843
▁valentía	-12844
▁vencedor	-12845
▁viéndose	-12846
collegiate	-12847
▁Castilian	-12848
▁alrededor	-12849
▁condemned	-12850
▁displayed	-12851
▁encantada	-12852
▁execution	-12853
▁imitation	-12854
▁procesión	-12855
▁resources	-12856
▁sintiendo	-12857
▁abundancia	-12858
▁concerning	-12859
▁employment	-12860
▁maravillas	-12861
▁sobresalto	-12862
▁verdaderas	-12863
▁Netherlands	-12864
▁association	-12865
▁combination	-12866
▁consideraba	-12867
▁experiences	-12868
▁generations	-12869
▁impressions	-12870
▁picturesque	-12871
▁indiferencia	-12872
▁irresistible	-12873
▁sentimientos	-12874
▁principalmente	-12875
50	-12876
EC	-12877
Gu	-12878
Ph	-12879
cf	-12880
ky	-12881
).]	-12882
Hab	-12883
IVE	-12884
Mor	-12885
cua	-12886
lie	-12887
olt	-12888
oto	-12889
rát	-12890
sac	-12891
sin	-12892
ugu	-12893
ujo	-12894
zer	-12895
▁Fu	-12896
▁ox	-12897
acil	-12898
adía	-12899
bejo	-12900
fast	-12901
otro	-12902
teau	-12903
verd	-12904
▁159	-12905
▁400	-12906
▁Ham	-12907
▁LOS	-12908
▁bag	-12909
▁buy	-12910
▁dag	-12911
▁dañ	-12912
▁lon	-12913
▁moh	-12914
▁muñ	-12915
▁oye	-12916
▁tañ	-12917
▁toe	-12918
▁tyr	-12919
▁vap	-12920
IVERS	-12921
adrón	-12922
allos	-12923
clock	-12924
esten	-12925
labos	-12926
oners	-12927
ordas	-12928
pical	-12929
ronto	-12930
uding	-12931
urada	-12932
uting	-12933
ámara	-12934
▁Casi	-12935
▁Dire	-12936
▁Four	-12937
▁Hugo	-12938
▁Medi	-12939
▁alca	-12940
▁amos	-12941
▁arri	-12942
▁aves	-12943
▁cock	-12944
▁colo	-12945
▁crea	-12946
▁dela	-12947
▁disk	-12948
▁farm	-12949
▁hare	-12950
▁leal	-12951
▁poly	-12952
▁quot	-12953
▁raso	-12954
▁reap	-12955
▁seca	-12956
▁silb	-12957
▁tome	-12958
▁tout	-12959
▁vele	-12960
▁wine	-12961
▁zand	-12962
▁zoog	-12963
ampoco	-12964
exclam	-12965
ferent	-12966
ineros	-12967
tainty	-12968
árselo	-12969
óviles	-12970
▁Decía	-12971
▁Gains	-12972
▁Mycen	-12973
▁Ramón	-12974
▁Words	-12975
▁World	-12976
▁agric	-12977
▁aware	-12978
▁barra	-12979
▁block	-12980
▁borne	-12981
▁cruci	-12982
▁debes	-12983
▁degen	-12984
▁ellen	-12985
▁funds	-12986
▁grass	-12987
▁hayan	-12988
▁hunne	-12989
▁héroe	-12990
▁modos	-12991
▁pages	-12992
▁physi	-12993
▁piens	-12994
▁pinta	-12995
▁print	-12996
▁prisa	-12997
▁reían	-12998
▁rogar	-12999
▁serán	-13000
▁sport	-13001
▁trist	-13002
▁vital	-13003
▁vuelo	-13004
▁waste	-13005
Cuántos	-13006
convent	-13007
hetoric	-13008
iéronse	-13009
ológico	-13010
ustiano	-13011
vereign	-13012
▁Amster	-13013
▁Little	-13014
▁Oxford	-13015
▁Ricote	-13016
▁Viendo	-13017
▁ancest	-13018
▁aplast	-13019
▁atento	-13020
▁blocks	-13021
▁circul	-13022
▁clever	-13023
▁devota	-13024
▁entern	-13025
▁escarn	-13026
▁estima	-13027
▁estorb	-13028
▁eterno	-13029
▁groote	-13030
▁hatred	-13031
▁ironía	-13032
▁kindly	-13033
▁llanto	-13034
▁occurs	-13035
▁orange	-13036
▁perdía	-13037
▁región	-13038
▁reject	-13039
▁sevent	-13040
▁shores	-13041
▁suprem	-13042
▁tendré	-13043
▁thirst	-13044
▁trecho	-13045
▁upward	-13046
▁vessel	-13047
clesiast	-13048
▁Andrews	-13049
▁Estados	-13050
▁Russell	-13051
▁Siempre	-13052
▁Through	-13053
▁apetito	-13054
▁balance	-13055
▁catorce	-13056
▁charged	-13057
▁conject	-13058
▁crossed	-13059
▁cuentan	-13060
▁cuentos	-13061
▁deliber	-13062
▁effects	-13063
▁empezar	-13064
▁estraña	-13065
▁geweest	-13066
▁jinetes	-13067
▁leisure	-13068
▁offices	-13069
▁parroqu	-13070
▁pleased	-13071
▁promesa	-13072
▁proverb	-13073
▁resting	-13074
▁saliese	-13075
▁seeking	-13076
▁sitting	-13077
▁sonaban	-13078
▁upright	-13079
conscious	-13080
▁Dolorida	-13081
▁Hospital	-13082
▁absorbed	-13083
▁amanecer	-13084
▁attended	-13085
▁captured	-13086
▁criminal	-13087
▁diversas	-13088
▁entrando	-13089
▁entregar	-13090
▁executed	-13091
▁families	-13092
▁gobernar	-13093
▁governor	-13094
▁includes	-13095
▁inspired	-13096
▁misterio	-13097
▁prefería	-13098
▁prometió	-13099
▁prospect	-13100
▁suspenso	-13101
▁troubled	-13102
▁Fernandez	-13103
▁admirable	-13104
▁childhood	-13105
▁divisions	-13106
▁intervals	-13107
▁militares	-13108
▁quisieres	-13109
▁sovereign	-13110
▁Joaquinito	-13111
▁habitación	-13112
▁instrument	-13113
▁occupation	-13114
▁translated	-13115
▁transverse	-13116
▁disposition	-13117
▁resistencia	-13118
▁atrevimiento	-13119
▁representaba	-13120
▁tranquilidad	-13121
▁consideración	-13122
▁contemporaries	-13123
,_	-13124
EJ	-13125
KE	-13126
LA	-13127
MO	-13128
có	-13129
úd	-13130
--"	-13131
ADO	-13132
Mil	-13133
Mon	-13134
One	-13135
fem	-13136
igt	-13137
mel	-13138
mid	-13139
raw	-13140
rra	-13141
vey	-13142
érf	-13143
▁(7	-13144
▁(9	-13145
▁79	-13146
▁Ce	-13147
▁Op	-13148
▁Ot	-13149
▁ff	-13150
Chap	-13151
amph	-13152
andt	-13153
apen	-13154
axon	-13155
cast	-13156
emon	-13157
enge	-13158
erry	-13159
etus	-13160
fied	-13161
gano	-13162
preh	-13163
ritz	-13164
sela	-13165
tery	-13166
uena	-13167
usia	-13168
▁259	-13169
▁32,	-13170
▁401	-13171
▁Abr	-13172
▁Alm	-13173
▁Arn	-13174
▁ENC	-13175
▁Fel	-13176
▁Fue	-13177
▁Hel	-13178
▁Muy	-13179
▁Nos	-13180
▁ROM	-13181
▁Zar	-13182
▁aco	-13183
▁aya	-13184
▁bab	-13185
▁ced	-13186
▁coj	-13187
▁gay	-13188
▁iré	-13189
▁jun	-13190
▁kne	-13191
▁púl	-13192
Adiós	-13193
board	-13194
cados	-13195
cular	-13196
erson	-13197
geven	-13198
gonal	-13199
iaban	-13200
ieden	-13201
ierte	-13202
igual	-13203
ileza	-13204
isóst	-13205
orios	-13206
zuela	-13207
▁Está	-13208
▁Next	-13209
▁Otra	-13210
▁Pepe	-13211
▁René	-13212
▁Socr	-13213
▁anta	-13214
▁arca	-13215
▁bajó	-13216
▁bapt	-13217
▁copy	-13218
▁cose	-13219
▁dawn	-13220
▁dial	-13221
▁ease	-13222
▁enca	-13223
▁gris	-13224
▁hart	-13225
▁ital	-13226
▁maar	-13227
▁mire	-13228
▁moda	-13229
▁monó	-13230
▁nube	-13231
▁odio	-13232
▁page	-13233
▁pais	-13234
▁plas	-13235
▁quem	-13236
▁rogó	-13237
▁roja	-13238
▁ster	-13239
▁uñas	-13240
Cuando	-13241
ENAISS	-13242
Temple	-13243
adillo	-13244
aments	-13245
garten	-13246
ialdad	-13247
izados	-13248
juicio	-13249
yramid	-13250
ágenes	-13251
▁Admir	-13252
▁Langu	-13253
▁Mucho	-13254
▁Under	-13255
▁assem	-13256
▁barro	-13257
▁equiv	-13258
▁estat	-13259
▁furia	-13260
▁membr	-13261
▁memor	-13262
▁oppon	-13263
▁roman	-13264
▁socor	-13265
▁stiff	-13266
▁sudor	-13267
▁suena	-13268
▁sujet	-13269
▁ánima	-13270
ircular	-13271
▁Cuanto	-13272
▁Estado	-13273
▁Mother	-13274
▁Parece	-13275
▁Second	-13276
▁acción	-13277
▁acting	-13278
▁apoder	-13279
▁appeal	-13280
▁cansan	-13281
▁diesen	-13282
▁domést	-13283
▁díjole	-13284
▁eighty	-13285
▁faltan	-13286
▁flower	-13287
▁griego	-13288
▁hungry	-13289
▁ingles	-13290
▁mesmos	-13291
▁mesura	-13292
▁miente	-13293
▁mármol	-13294
▁ordenó	-13295
▁richly	-13296
▁romper	-13297
▁sereno	-13298
▁sincer	-13299
▁socorr	-13300
▁tenéis	-13301
▁tercer	-13302
▁trueno	-13303
▁vestir	-13304
▁waters	-13305
▁íntimo	-13306
encement	-13307
imamente	-13308
▁January	-13309
▁Justice	-13310
▁UNIVERS	-13311
▁amorosa	-13312
▁aroused	-13313
▁atribuy	-13314
▁benefit	-13315
▁gradual	-13316
▁hacerla	-13317
▁humedad	-13318
▁llamada	-13319
▁llegase	-13320
▁musical	-13321
▁notions	-13322
▁plainly	-13323
▁portero	-13324
▁putting	-13325
▁reinfor	-13326
▁testigo	-13327
▁traslad	-13328
▁Preguntó	-13329
▁Williams	-13330
▁arrancar	-13331
▁asimesmo	-13332
▁balcones	-13333
▁batallas	-13334
▁borrowed	-13335
▁buttress	-13336
▁colossal	-13337
▁coloured	-13338
▁cumplido	-13339
▁despidió	-13340
▁doctrine	-13341
▁escribía	-13342
▁española	-13343
▁francesa	-13344
▁milagros	-13345
▁passages	-13346
▁patience	-13347
▁pressure	-13348
▁profesor	-13349
▁restored	-13350
▁terminar	-13351
▁violence	-13352
▁weakness	-13353
ENAISSANCE	-13354
▁Amsterdam	-13355
▁Palomares	-13356
▁apparatus	-13357
▁athletics	-13358
▁attempted	-13359
▁comodidad	-13360
▁convinced	-13361
▁delivered	-13362
▁endeavour	-13363
▁establish	-13364
▁forastero	-13365
▁indispens	-13366
▁mountains	-13367
▁ondersche	-13368
▁recognize	-13369
▁specially	-13370
▁trembling	-13371
▁Philosophy	-13372
▁Robustiano	-13373
▁absolutely	-13374
▁desventura	-13375
▁friendship	-13376
▁presidente	-13377
▁accordingly	-13378
▁desesperado	-13379
▁desgraciado	-13380
▁indignación	-13381
▁intercourse	-13382
▁sentimental	-13383
▁Gainsborough	-13384
▁considerando	-13385
▁constructive	-13386
▁encantamento	-13387
18	-13388
60	-13389
Oy	-13390
hr	-13391
5).	-13392
IND	-13393
Mal	-13394
NOT	-13395
OOK	-13396
See	-13397
Son	-13398
Tes	-13399
any	-13400
bey	-13401
cam	-13402
fos	-13403
gor	-13404
gro	-13405
hue	-13406
inx	-13407
ots	-13408
usi	-13409
vió	-13410
▁Fl	-13411
▁sú	-13412
Ella	-13413
Esta	-13414
From	-13415
aked	-13416
ands	-13417
atra	-13418
blan	-13419
cita	-13420
city	-13421
cots	-13422
elde	-13423
pell	-13424
rana	-13425
real	-13426
tenn	-13427
todo	-13428
toño	-13429
ucid	-13430
unos	-13431
uper	-13432
whel	-13433
zosa	-13434
áneo	-13435
▁--_	-13436
▁142	-13437
▁175	-13438
▁Dis	-13439
▁Dió	-13440
▁HIS	-13441
▁Hon	-13442
▁Nin	-13443
▁Ook	-13444
▁Phi	-13445
▁afr	-13446
▁atr	-13447
▁awa	-13448
▁bil	-13449
▁cód	-13450
▁dip	-13451
▁dub	-13452
▁fet	-13453
▁fum	-13454
▁gel	-13455
▁loc	-13456
▁tip	-13457
▁Águ	-13458
aguas	-13459
ambre	-13460
books	-13461
erste	-13462
esses	-13463
garon	-13464
gosto	-13465
isten	-13466
lares	-13467
poner	-13468
retch	-13469
uated	-13470
ándos	-13471
▁Cant	-13472
▁HALL	-13473
▁Holy	-13474
▁PART	-13475
▁Sund	-13476
▁Waal	-13477
▁anal	-13478
▁carp	-13479
▁cart	-13480
▁cuyd	-13481
▁doll	-13482
▁gild	-13483
▁lana	-13484
▁peña	-13485
▁pist	-13486
▁plus	-13487
▁pozo	-13488
▁quej	-13489
▁sier	-13490
▁stem	-13491
▁vaso	-13492
▁weep	-13493
▁welf	-13494
bishop	-13495
ecidos	-13496
iembre	-13497
ársela	-13498
ítulos	-13499
▁Andal	-13500
▁EARLY	-13501
▁Otras	-13502
▁actos	-13503
▁ajeno	-13504
▁anger	-13505
▁arrug	-13506
▁boven	-13507
▁buque	-13508
▁chron	-13509
▁cloak	-13510
▁cobre	-13511
▁divin	-13512
▁ensal	-13513
▁faint	-13514
▁grano	-13515
▁hueco	-13516
▁monja	-13517
▁nariz	-13518
▁notar	-13519
▁prima	-13520
▁salen	-13521
▁sanct	-13522
▁shrug	-13523
▁sordo	-13524
▁weary	-13525
natural	-13526
▁Column	-13527
▁Quería	-13528
▁Sibyla	-13529
▁Within	-13530
▁adivin	-13531
▁bestow	-13532
▁cabras	-13533
▁candid	-13534
▁connex	-13535
▁consag	-13536
▁curate	-13537
▁delant	-13538
▁desear	-13539
▁dining	-13540
▁diplom	-13541
▁fraile	-13542
▁geomet	-13543
▁gozaba	-13544
▁incend	-13545
▁lastim	-13546
▁legisl	-13547
▁levita	-13548
▁marvel	-13549
▁metaph	-13550
▁oculta	-13551
▁ovejas	-13552
▁purple	-13553
▁pálida	-13554
▁recorr	-13555
▁refres	-13556
▁regret	-13557
▁screen	-13558
▁shadow	-13559
▁sirven	-13560
▁stated	-13561
▁tronco	-13562
........	-13563
isóstomo	-13564
▁admirar	-13565
▁andando	-13566
▁arcades	-13567
▁dejarle	-13568
▁egoísmo	-13569
▁escribe	-13570
▁fathers	-13571
▁heridos	-13572
▁interro	-13573
▁limosna	-13574
▁moverse	-13575
▁ofrecer	-13576
▁persist	-13577
▁pintura	-13578
▁program	-13579
▁quietly	-13580
▁romance	-13581
▁scarlet	-13582
▁vientre	-13583
▁vuelven	-13584
▁welfare	-13585
Education	-13586
▁Spaniard	-13587
▁Talavera	-13588
▁biograph	-13589
▁caballer	-13590
▁caliente	-13591
▁conflict	-13592
▁constitu	-13593
▁frialdad	-13594
▁gravedad	-13595
▁imprison	-13596
▁inquired	-13597
▁mistakes	-13598
▁moulding	-13599
▁obscuras	-13600
▁particul	-13601
▁perceive	-13602
▁precipit	-13603
▁procurar	-13604
▁protesta	-13605
▁quantity	-13606
▁quarters	-13607
▁reserved	-13608
▁respecto	-13609
▁revealed	-13610
▁vizcaíno	-13611
▁volverse	-13612
▁Faculties	-13613
▁Secretary	-13614
▁Spaniards	-13615
▁admission	-13616
▁conquista	-13617
▁consejero	-13618
▁disparate	-13619
▁escuchaba	-13620
▁fifteenth	-13621
▁geography	-13622
▁household	-13623
▁ilusiones	-13624
▁posverbal	-13625
▁preceding	-13626
▁reflected	-13627
▁societies	-13628
▁transepts	-13629
▁commercial	-13630
▁continente	-13631
▁habitantes	-13632
▁miserables	-13633
▁recognised	-13634
▁únicamente	-13635
▁condiciones	-13636
▁continually	-13637
▁completamente	-13638
▁determinación	-13639
▁preocupaciones	-13640
▁representation	-13641
30	-13642
4)	-13643
;”	-13644
XX	-13645
pi	-13646
-15	-13647
2-3	-13648
CHO	-13649
LET	-13650
Mar	-13651
OND	-13652
ONS	-13653
Reg	-13654
Sil	-13655
Tra	-13656
ULT	-13657
dem	-13658
ems	-13659
fix	-13660
gip	-13661
hom	-13662
lag	-13663
laz	-13664
oir	-13665
pio	-13666
rod	-13667
sey	-13668
íen	-13669
▁Sa	-13670
aden	-13671
alas	-13672
aman	-13673
bajo	-13674
dorf	-13675
erez	-13676
ersa	-13677
fera	-13678
guía	-13679
icho	-13680
izas	-13681
jand	-13682
much	-13683
oked	-13684
ouch	-13685
sels	-13686
some	-13687
ucht	-13688
unas	-13689
zcan	-13690
ícar	-13691
▁Dit	-13692
▁Pel	-13693
▁Pep	-13694
▁XXV	-13695
▁aca	-13696
▁doñ	-13697
▁eig	-13698
▁fly	-13699
▁fuí	-13700
▁fyn	-13701
▁isn	-13702
▁lam	-13703
▁lee	-13704
▁íns	-13705
agoza	-13706
atiem	-13707
contr	-13708
forth	-13709
iguen	-13710
itorn	-13711
iture	-13712
metic	-13713
olver	-13714
onete	-13715
organ	-13716
ritos	-13717
urría	-13718
ville	-13719
▁Book	-13720
▁Cock	-13721
▁Dixo	-13722
▁Evil	-13723
▁July	-13724
▁NOTE	-13725
▁Unos	-13726
▁XIII	-13727
▁alud	-13728
▁asal	-13729
▁busy	-13730
▁céle	-13731
▁depr	-13732
▁elog	-13733
▁epit	-13734
▁exha	-13735
▁fija	-13736
▁gruñ	-13737
▁huel	-13738
▁leaf	-13739
▁ligt	-13740
▁manu	-13741
▁nací	-13742
▁olla	-13743
▁pest	-13744
▁rang	-13745
▁rene	-13746
▁sana	-13747
▁taba	-13748
▁teat	-13749
▁temo	-13750
▁tram	-13751
▁trif	-13752
▁tuya	-13753
▁tuyo	-13754
▁verm	-13755
▁útil	-13756
000.00	-13757
antado	-13758
eloved	-13759
entros	-13760
itious	-13761
ombard	-13762
urance	-13763
urious	-13764
▁Escor	-13765
▁Frank	-13766
▁Olymp	-13767
▁Venía	-13768
▁aflig	-13769
▁ajust	-13770
▁alude	-13771
▁cella	-13772
▁cerró	-13773
▁conmo	-13774
▁depar	-13775
▁domes	-13776
▁esbel	-13777
▁excep	-13778
▁fecha	-13779
▁hopes	-13780
▁indec	-13781
▁kings	-13782
▁limbs	-13783
▁lofty	-13784
▁marry	-13785
▁pairs	-13786
▁rises	-13787
▁ruego	-13788
▁sabor	-13789
▁sabré	-13790
▁signs	-13791
▁skept	-13792
▁timid	-13793
▁trace	-13794
▁track	-13795
▁urged	-13796
agement	-13797
cuencia	-13798
endedor	-13799
itornes	-13800
ologist	-13801
ucación	-13802
viously	-13803
▁Amiens	-13804
▁Eiland	-13805
▁Julius	-13806
▁Leyden	-13807
▁Rincón	-13808
▁Transl	-13809
▁Unidos	-13810
▁bromas	-13811
▁corpse	-13812
▁correo	-13813
▁desque	-13814
▁encarn	-13815
▁engend	-13816
▁enrich	-13817
▁exigía	-13818
▁feared	-13819
▁frases	-13820
▁gloomy	-13821
▁gustos	-13822
▁limpia	-13823
▁lively	-13824
▁llaves	-13825
▁marine	-13826
▁mentec	-13827
▁misund	-13828
▁oldest	-13829
▁orgull	-13830
▁orilla	-13831
▁planes	-13832
▁preven	-13833
▁redund	-13834
▁ruegos	-13835
▁ruidos	-13836
▁sabios	-13837
▁sacaba	-13838
▁sister	-13839
▁sooner	-13840
▁spines	-13841
▁strain	-13842
▁summit	-13843
▁suppos	-13844
▁talent	-13845
▁tengan	-13846
▁theirs	-13847
▁tocado	-13848
▁trance	-13849
▁trinch	-13850
▁vivido	-13851
ithmetic	-13852
▁Aquello	-13853
▁Birdsel	-13854
▁Estando	-13855
▁Stephen	-13856
▁Tenorio	-13857
▁Vicente	-13858
▁apasion	-13859
▁aquesta	-13860
▁contact	-13861
▁corrido	-13862
▁corrían	-13863
▁dancing	-13864
▁demanda	-13865
▁dropped	-13866
▁enlight	-13867
▁enormes	-13868
▁exagger	-13869
▁fitting	-13870
▁frailes	-13871
▁fuentes	-13872
▁gardens	-13873
▁hacemos	-13874
▁healthy	-13875
▁merecía	-13876
▁ocurrió	-13877
▁priests	-13878
▁puestas	-13879
▁recibía	-13880
▁retablo	-13881
▁rightly	-13882
▁thither	-13883
▁ventera	-13884
▁viernes	-13885
▁watched	-13886
conventos	-13887
▁Encimada	-13888
▁Majestad	-13889
▁angustia	-13890
▁conducta	-13891
▁diamonds	-13892
▁entraban	-13893
▁estimate	-13894
▁existing	-13895
▁imágenes	-13896
▁ligereza	-13897
▁perspect	-13898
▁posesión	-13899
▁pretexto	-13900
▁princess	-13901
▁suitable	-13902
▁swimming	-13903
▁thinkers	-13904
▁virtuous	-13905
▁visiones	-13906
▁viéndole	-13907
▁Dominican	-13908
▁Hermandad	-13909
▁Parthenon	-13910
▁Respondió	-13911
▁Sometimes	-13912
▁alabanzas	-13913
▁aristocra	-13914
▁cansancio	-13915
▁confusión	-13916
▁conquered	-13917
▁despierto	-13918
▁pendencia	-13919
▁pensativo	-13920
▁perjuicio	-13921
▁permanent	-13922
▁solitario	-13923
▁yesterday	-13924
udablemente	-13925
▁UNIVERSITY	-13926
▁casualidad	-13927
▁comprendió	-13928
▁containing	-13929
▁cultivated	-13930
▁developing	-13931
▁disappoint	-13932
▁discípulos	-13933
▁enamorados	-13934
▁imperative	-13935
▁laboratory	-13936
▁literatura	-13937
▁projection	-13938
▁sculptured	-13939
▁secretario	-13940
▁testamento	-13941
▁verdaderos	-13942
▁Philanthrop	-13943
▁RENAISSANCE	-13944
▁surrounding	-13945
▁traditional	-13946
▁transparent	-13947
▁independence	-13948
▁significance	-13949
▁indispensable	-13950
▁perfectamente	-13951
▁Constantinople	-13952
!;	-13953
10	-13954
?;	-13955
IJ	-13956
ds	-13957
óp	-13958
-17	-13959
-5:	-13960
.”—	-13961
Cid	-13962
IRE	-13963
OLF	-13964
PER	-13965
Sin	-13966
bac	-13967
bot	-13968
cin	-13969
iré	-13970
itr	-13971
jal	-13972
mit	-13973
niv	-13974
oli	-13975
usk	-13976
uve	-13977
ymn	-13978
▁Da	-13979
▁LL	-13980
▁Mc	-13981
▁Os	-13982
▁Up	-13983
▁Zu	-13984
▁_(	-13985
▁kw	-13986
Cort	-13987
amia	-13988
arna	-13989
book	-13990
ceme	-13991
cies	-13992
elly	-13993
emor	-13994
ener	-13995
erta	-13996
isca	-13997
kken	-13998
lass	-13999
loot	-14000
mile	-14001
omic	-14002
omin	-14003
oral	-14004
orms	-14005
taba	-14006
tegr	-14007
utar	-14008
wick	-14009
▁13,	-14010
▁24.	-14011
▁25.	-14012
▁Alg	-14013
▁Dej	-14014
▁Dor	-14015
▁Híz	-14016
▁Isa	-14017
▁Ruf	-14018
▁enz	-14019
▁gek	-14020
▁kil	-14021
▁loç	-14022
▁owe	-14023
RESTE	-14024
achus	-14025
aming	-14026
ancel	-14027
atada	-14028
ijden	-14029
intos	-14030
itada	-14031
pring	-14032
risto	-14033
sters	-14034
uerto	-14035
ulous	-14036
▁Acab	-14037
▁Allá	-14038
▁Heer	-14039
▁Hero	-14040
▁Hubo	-14041
▁Life	-14042
▁Miró	-14043
▁Miss	-14044
▁SHOW	-14045
▁Sent	-14046
▁Tuvo	-14047
▁abar	-14048
▁adjo	-14049
▁aims	-14050
▁dent	-14051
▁ferv	-14052
▁flex	-14053
▁letr	-14054
▁lujo	-14055
▁masa	-14056
▁mató	-14057
▁mede	-14058
▁nose	-14059
▁pade	-14060
▁pert	-14061
▁pess	-14062
▁pido	-14063
▁puse	-14064
▁rage	-14065
▁reía	-14066
▁suit	-14067
▁tint	-14068
▁trab	-14069
▁vehí	-14070
▁vern	-14071
▁wave	-14072
acidad	-14073
aderas	-14074
amburí	-14075
atados	-14076
aterra	-14077
atoria	-14078
cratic	-14079
ential	-14080
erosas	-14081
ession	-14082
illery	-14083
inking	-14084
itated	-14085
mented	-14086
ranean	-14087
upiter	-14088
vación	-14089
áculos	-14090
ásemos	-14091
ólicos	-14092
▁Hutch	-14093
▁Marne	-14094
▁acabe	-14095
▁apaci	-14096
▁bacía	-14097
▁buscó	-14098
▁cabec	-14099
▁caval	-14100
▁coinc	-14101
▁conos	-14102
▁dance	-14103
▁dudas	-14104
▁embaj	-14105
▁encub	-14106
▁fifth	-14107
▁fijos	-14108
▁hielo	-14109
▁inver	-14110
▁negot	-14111
▁pains	-14112
▁pavor	-14113
▁presa	-14114
▁reple	-14115
▁sacra	-14116
▁score	-14117
▁secas	-14118
▁sixty	-14119
▁sorry	-14120
▁staff	-14121
▁steam	-14122
▁stick	-14123
▁store	-14124
▁today	-14125
▁toros	-14126
▁tulis	-14127
▁usado	-14128
▁verja	-14129
▁zamen	-14130
▁ángel	-14131
IPRESTE	-14132
Señores	-14133
iosidad	-14134
itorium	-14135
osotras	-14136
▁Aristo	-14137
▁Schmid	-14138
▁Sierra	-14139
▁abismo	-14140
▁acaric	-14141
▁altura	-14142
▁amable	-14143
▁barrio	-14144
▁bridge	-14145
▁claims	-14146
▁coment	-14147
▁cortar	-14148
▁curves	-14149
▁denied	-14150
▁desgar	-14151
▁dreams	-14152
▁encoun	-14153
▁estrem	-14154
▁estudi	-14155
▁estuve	-14156
▁excuse	-14157
▁gebouw	-14158
▁gently	-14159
▁hadden	-14160
▁insinu	-14161
▁lacayo	-14162
▁leader	-14163
▁manteo	-14164
▁margin	-14165
▁ofrece	-14166
▁perdió	-14167
▁perple	-14168
▁phrase	-14169
▁pintar	-14170
▁prayed	-14171
▁quejas	-14172
▁redond	-14173
▁repreh	-14174
▁revolv	-14175
▁sabore	-14176
▁sillas	-14177
▁sirvió	-14178
▁socios	-14179
▁speaks	-14180
▁suelta	-14181
▁troops	-14182
▁tropas	-14183
▁vuelvo	-14184
osamente	-14185
tografía	-14186
▁Cornell	-14187
▁Endrina	-14188
▁Nuestro	-14189
▁Temples	-14190
▁blasfem	-14191
▁ceiling	-14192
▁cochero	-14193
▁conquer	-14194
▁counter	-14195
▁cuchill	-14196
▁descuid	-14197
▁despach	-14198
▁escapar	-14199
▁estraño	-14200
▁excited	-14201
▁kingdom	-14202
▁massive	-14203
▁moments	-14204
▁monedas	-14205
▁parezca	-14206
▁púlpito	-14207
▁related	-14208
▁singing	-14209
ymmetries	-14210
▁Cuaresma	-14211
▁Escoriál	-14212
▁Zaragoza	-14213
▁acciones	-14214
▁argument	-14215
▁calumnia	-14216
▁cantaban	-14217
▁comenzar	-14218
▁comiendo	-14219
▁commerce	-14220
▁conocida	-14221
▁conserje	-14222
▁corredor	-14223
▁crossing	-14224
▁desierto	-14225
▁destined	-14226
▁disgusto	-14227
▁eighteen	-14228
▁empezado	-14229
▁estudiar	-14230
▁frontera	-14231
▁gallinas	-14232
▁ganancia	-14233
▁marriage	-14234
▁mistaken	-14235
▁pudieran	-14236
▁recibido	-14237
▁requires	-14238
▁romantic	-14239
▁sensible	-14240
▁sentarse	-14241
▁suggests	-14242
▁supplied	-14243
▁testigos	-14244
▁troubles	-14245
▁wherever	-14246
▁Chemistry	-14247
▁actividad	-14248
▁additions	-14249
▁addressed	-14250
▁admirados	-14251
▁arrogante	-14252
▁cubiertos	-14253
▁debilidad	-14254
▁discretos	-14255
▁disimular	-14256
▁ejecución	-14257
▁elegantes	-14258
▁escribano	-14259
▁evidently	-14260
▁excelente	-14261
▁favourite	-14262
▁fingiendo	-14263
▁fragments	-14264
▁impresión	-14265
▁ingenioso	-14266
▁oraciones	-14267
▁processes	-14268
▁romántico	-14269
▁scattered	-14270
▁sentencia	-14271
▁siguieron	-14272
▁stupidity	-14273
▁suspicion	-14274
▁thickness	-14275
▁undergrad	-14276
▁valientes	-14277
▁violencia	-14278
▁Maritornes	-14279
▁Protestant	-14280
▁advantages	-14281
▁aprovechar	-14282
▁considerar	-14283
▁conviction	-14284
▁elocuencia	-14285
▁escuchando	-14286
▁formidable	-14287
▁mechanical	-14288
▁melancolía	-14289
▁representa	-14290
▁respetable	-14291
▁impaciencia	-14292
▁instruments	-14293
▁eclesiástico	-14294
▁indifference	-14295
▁magnificence	-14296
▁relationship	-14297
▁Philanthropin	-14298
!]	-14299
8)	-14300
AF	-14301
At	-14302
PO	-14303
Eng	-14304
Ent	-14305
Ese	-14306
FOR	-14307
God	-14308
ORK	-14309
Tan	-14310
gio	-14311
iez	-14312
ité	-14313
off	-14314
rac	-14315
rig	-14316
roo	-14317
six	-14318
ulf	-14319
uur	-14320
zag	-14321
óór	-14322
▁Ja	-14323
▁TW	-14324
▁Ty	-14325
▁só	-14326
ENTS	-14327
OUSE	-14328
Then	-14329
Viva	-14330
adel	-14331
eció	-14332
empl	-14333
etts	-14334
gote	-14335
hard	-14336
ikes	-14337
ildo	-14338
irió	-14339
itch	-14340
pelo	-14341
quin	-14342
rave	-14343
ueña	-14344
umen	-14345
unce	-14346
unte	-14347
uría	-14348
vete	-14349
vino	-14350
éano	-14351
▁209	-14352
▁28.	-14353
▁307	-14354
▁356	-14355
▁409	-14356
▁Díj	-14357
▁Etr	-14358
▁Mus	-14359
▁Nie	-14360
▁PRE	-14361
▁Ret	-14362
▁TEM	-14363
▁afe	-14364
▁ble	-14365
▁lod	-14366
▁lóg	-14367
▁oud	-14368
▁sát	-14369
▁vís	-14370
▁zee	-14371
1.50.	-14372
chant	-14373
enced	-14374
enten	-14375
iador	-14376
igour	-14377
inger	-14378
jando	-14379
onomy	-14380
phere	-14381
uente	-14382
ugare	-14383
verty	-14384
▁Clar	-14385
▁Desc	-14386
▁FROM	-14387
▁Febr	-14388
▁Jour	-14389
▁Penn	-14390
▁Pont	-14391
▁aero	-14392
▁appr	-14393
▁ateo	-14394
▁boda	-14395
▁caja	-14396
▁clim	-14397
▁dete	-14398
▁drum	-14399
▁endo	-14400
▁engr	-14401
▁fizo	-14402
▁hilo	-14403
▁huis	-14404
▁jeal	-14405
▁kiss	-14406
▁lens	-14407
▁lest	-14408
▁luck	-14409
▁luto	-14410
▁mamá	-14411
▁mart	-14412
▁noch	-14413
▁onge	-14414
▁otor	-14415
▁ours	-14416
▁phen	-14417
▁poll	-14418
▁prey	-14419
▁rese	-14420
▁risk	-14421
▁rond	-14422
▁saco	-14423
▁snow	-14424
▁toil	-14425
areció	-14426
athing	-14427
edores	-14428
elsche	-14429
ersion	-14430
ianism	-14431
ientas	-14432
ieving	-14433
inging	-14434
istyle	-14435
untain	-14436
verdun	-14437
▁Beaut	-14438
▁Ellos	-14439
▁Gaula	-14440
▁LINES	-14441
▁Nueva	-14442
▁Schol	-14443
▁Super	-14444
▁Teach	-14445
▁Vault	-14446
▁agres	-14447
▁alleg	-14448
▁apres	-14449
▁beams	-14450
▁broke	-14451
▁cabin	-14452
▁casco	-14453
▁conpl	-14454
▁dezen	-14455
▁drive	-14456
▁equip	-14457
▁fanat	-14458
▁fugit	-14459
▁gordo	-14460
▁huérf	-14461
▁lados	-14462
▁maltr	-14463
▁mante	-14464
▁ocean	-14465
▁piden	-14466
▁piety	-14467
▁quita	-14468
▁salga	-14469
▁smell	-14470
▁sollo	-14471
▁stout	-14472
▁trick	-14473
▁ultra	-14474
▁volar	-14475
▁voorn	-14476
fluence	-14477
iedades	-14478
iéredes	-14479
tenance	-14480
▁Celest	-14481
▁Houses	-14482
▁Muerte	-14483
▁Observ	-14484
▁Oyendo	-14485
▁Rufina	-14486
▁acudió	-14487
▁arrive	-14488
▁artíst	-14489
▁choose	-14490
▁cueros	-14491
▁derram	-14492
▁duerme	-14493
▁eating	-14494
▁facult	-14495
▁franco	-14496
▁guests	-14497
▁humill	-14498
▁impuls	-14499
▁juegos	-14500
▁luchar	-14501
▁mangas	-14502
▁muncho	-14503
▁pantal	-14504
▁patrón	-14505
▁plumas	-14506
▁portra	-14507
▁prelim	-14508
▁recado	-14509
▁reinos	-14510
▁seduct	-14511
▁sketch	-14512
▁stared	-14513
▁tiento	-14514
▁unjust	-14515
▁visión	-14516
▁yerbas	-14517
maciones	-14518
▁Cologne	-14519
▁Durante	-14520
▁Dynasty	-14521
▁Hartlib	-14522
▁Jerusal	-14523
▁Laurier	-14524
▁Lombard	-14525
▁Tamburí	-14526
▁Yverdun	-14527
▁burning	-14528
▁citizen	-14529
▁compass	-14530
▁dealing	-14531
▁decirlo	-14532
▁degener	-14533
▁delicia	-14534
▁dirigió	-14535
▁earthly	-14536
▁edifice	-14537
▁equival	-14538
▁estrech	-14539
▁falling	-14540
▁ficción	-14541
▁honesta	-14542
▁indefin	-14543
▁llevase	-14544
▁mirrors	-14545
▁monóton	-14546
▁painful	-14547
▁perdone	-14548
▁plantas	-14549
▁reports	-14550
▁section	-14551
▁seguido	-14552
▁serving	-14553
▁smiling	-14554
▁solitar	-14555
achusetts	-14556
ibilities	-14557
▁Augustus	-14558
▁Director	-14559
▁Robinson	-14560
▁Socrates	-14561
▁Trifaldi	-14562
▁adivinar	-14563
▁approxim	-14564
▁arrested	-14565
▁athletic	-14566
▁atropell	-14567
▁capricho	-14568
▁comienza	-14569
▁contando	-14570
▁crueldad	-14571
▁encantos	-14572
▁enlarged	-14573
▁entierro	-14574
▁entriste	-14575
▁estudios	-14576
▁examined	-14577
▁heavenly	-14578
▁hubiesen	-14579
▁medicina	-14580
▁medicine	-14581
▁mostrado	-14582
▁peaceful	-14583
▁pensaban	-14584
▁petition	-14585
▁pleasing	-14586
▁prestige	-14587
▁reaching	-14588
▁realized	-14589
▁recomend	-14590
▁shoulder	-14591
▁treasure	-14592
▁Fortunato	-14593
▁Paciencia	-14594
▁abundante	-14595
▁artificio	-14596
▁attracted	-14597
▁bendición	-14598
▁chiquilla	-14599
▁conducted	-14600
▁contentos	-14601
▁contraria	-14602
▁departure	-14603
▁durmiendo	-14604
▁educación	-14605
▁extension	-14606
▁inquietud	-14607
▁levantado	-14608
▁multitude	-14609
▁pendiente	-14610
▁receiving	-14611
▁resultaba	-14612
▁supremacy	-14613
indergarten	-14614
▁additional	-14615
▁castellana	-14616
▁comandante	-14617
▁impressive	-14618
▁misfortune	-14619
▁nacimiento	-14620
▁ordinarily	-14621
▁permission	-14622
▁preguntaba	-14623
▁presentaba	-14624
▁principios	-14625
▁reasonable	-14626
▁settlement	-14627
▁yourselves	-14628
clesiastical	-14629
▁approaching	-14630
▁departments	-14631
▁distinguish	-14632
▁performance	-14633
▁rectangular	-14634
▁misericordia	-14635
▁pareciéndole	-14636
▁Massachusetts	-14637
▁Professorship	-14638
▁characterised	-14639
▁professorship	-14640
GU	-14641
UE	-14642
tu	-14643
úr	-14644
Hol	-14645
OSS	-14646
San	-14647
Ver	-14648
[10	-14649
día	-14650
net	-14651
oge	-14652
rey	-14653
yns	-14654
▁4:	-14655
▁AC	-14656
▁HE	-14657
▁Ll	-14658
▁Va	-14659
▁yr	-14660
STER	-14661
acen	-14662
agar	-14663
aine	-14664
aker	-14665
aran	-14666
arsh	-14667
atch	-14668
cave	-14669
emin	-14670
fish	-14671
gran	-14672
olen	-14673
sequ	-14674
took	-14675
ídas	-14676
▁(14	-14677
▁30,	-14678
▁406	-14679
▁411	-14680
▁Any	-14681
▁Arc	-14682
▁CAM	-14683
▁Cár	-14684
▁Hor	-14685
▁Len	-14686
▁Mex	-14687
▁OLD	-14688
▁Rub	-14689
▁Sil	-14690
▁Tos	-14691
▁ate	-14692
▁civ	-14693
▁fos	-14694
▁idi	-14695
▁job	-14696
▁key	-14697
▁lid	-14698
▁lum	-14699
▁och	-14700
▁plo	-14701
▁pom	-14702
▁rif	-14703
▁ted	-14704
▁zeg	-14705
Nunca	-14706
Usted	-14707
ajero	-14708
bragt	-14709
cules	-14710
ermen	-14711
ffect	-14712
grima	-14713
iaron	-14714
jeron	-14715
oreto	-14716
ornos	-14717
peare	-14718
quino	-14719
ranch	-14720
reeks	-14721
rofas	-14722
ships	-14723
uelve	-14724
unció	-14725
uscan	-14726
vault	-14727
▁Barn	-14728
▁COMP	-14729
▁CONT	-14730
▁Oude	-14731
▁Over	-14732
▁Soon	-14733
▁Tras	-14734
▁WOLF	-14735
▁Yale	-14736
▁bibl	-14737
▁brid	-14738
▁cier	-14739
▁clay	-14740
▁cofr	-14741
▁cool	-14742
▁drop	-14743
▁fare	-14744
▁font	-14745
▁heat	-14746
▁muro	-14747
▁noct	-14748
▁pill	-14749
▁preg	-14750
▁rail	-14751
▁rosa	-14752
▁serp	-14753
▁seré	-14754
▁sill	-14755
▁tank	-14756
▁vago	-14757
▁vibr	-14758
▁vine	-14759
acious	-14760
esting	-14761
icario	-14762
mentos	-14763
olores	-14764
éndolo	-14765
▁Carol	-14766
▁Cross	-14767
▁India	-14768
▁March	-14769
▁Mejor	-14770
▁Prins	-14771
▁Quiso	-14772
▁Scots	-14773
▁Stand	-14774
▁Three	-14775
▁Vamos	-14776
▁amaba	-14777
▁ancha	-14778
▁balde	-14779
▁besie	-14780
▁blame	-14781
▁bodas	-14782
▁chann	-14783
▁chast	-14784
▁check	-14785
▁cogió	-14786
▁creen	-14787
▁dezir	-14788
▁digan	-14789
▁dogma	-14790
▁drove	-14791
▁excav	-14792
▁exces	-14793
▁fasta	-14794
▁flaca	-14795
▁frank	-14796
▁fruto	-14797
▁galle	-14798
▁gebru	-14799
▁guess	-14800
▁holes	-14801
▁hurry	-14802
▁image	-14803
▁justa	-14804
▁llamo	-14805
▁llano	-14806
▁matan	-14807
▁pulso	-14808
▁puños	-14809
▁rezar	-14810
▁saltó	-14811
▁scorn	-14812
▁seria	-14813
▁shade	-14814
▁susto	-14815
▁sweep	-14816
▁tardó	-14817
▁trast	-14818
▁uncle	-14819
▁uncom	-14820
▁veget	-14821
▁verlo	-14822
▁vería	-14823
▁vices	-14824
▁widow	-14825
iéramos	-14826
▁Loreto	-14827
▁Murray	-14828
▁Pallad	-14829
▁Persia	-14830
▁Sophia	-14831
▁Sunday	-14832
▁Things	-14833
▁abrazó	-14834
▁absent	-14835
▁achiev	-14836
▁ajenas	-14837
▁arroyo	-14838
▁attach	-14839
▁breast	-14840
▁bricks	-14841
▁castle	-14842
▁cielos	-14843
▁conocí	-14844
▁crimes	-14845
▁desdén	-14846
▁despos	-14847
▁dichos	-14848
▁dissol	-14849
▁eerste	-14850
▁elders	-14851
▁engine	-14852
▁hechas	-14853
▁hermit	-14854
▁jewels	-14855
▁juntas	-14856
▁pardon	-14857
▁pelliz	-14858
▁pocket	-14859
▁puedan	-14860
▁recién	-14861
▁reposo	-14862
▁retire	-14863
▁robado	-14864
▁solían	-14865
▁string	-14866
▁subord	-14867
▁suited	-14868
▁thanks	-14869
▁vooral	-14870
▁walked	-14871
▁órgano	-14872
▁adapted	-14873
▁alcohol	-14874
▁bandera	-14875
▁bendito	-14876
▁codicia	-14877
▁colgado	-14878
▁constra	-14879
▁corneta	-14880
▁cruelty	-14881
▁diestra	-14882
▁enemiga	-14883
▁equivoc	-14884
▁espadas	-14885
▁infanta	-14886
▁laatste	-14887
▁lecture	-14888
▁leyenda	-14889
▁metafís	-14890
▁monster	-14891
▁murmura	-14892
▁médicos	-14893
▁novedad	-14894
▁ocupaba	-14895
▁oneself	-14896
▁percent	-14897
▁poverty	-14898
▁quitado	-14899
▁raising	-14900
▁readers	-14901
▁repetía	-14902
▁rivalry	-14903
▁santigu	-14904
▁señoría	-14905
▁suplico	-14906
▁teatros	-14907
▁temblar	-14908
▁therein	-14909
▁ventaja	-14910
entemente	-14911
▁Learning	-14912
▁Northern	-14913
▁Oriental	-14914
▁Southern	-14915
▁adentros	-14916
▁algemeen	-14917
▁aquarium	-14918
▁benevens	-14919
▁breaking	-14920
▁bristles	-14921
▁comprado	-14922
▁creation	-14923
▁distress	-14924
▁escritos	-14925
▁formando	-14926
▁fortress	-14927
▁graciosa	-14928
▁infinito	-14929
▁innocent	-14930
▁listened	-14931
▁manteles	-14932
▁naciones	-14933
▁permitía	-14934
▁portions	-14935
▁pudiesen	-14936
▁reaction	-14937
▁responde	-14938
▁severity	-14939
▁substant	-14940
▁consonant	-14941
▁dedicated	-14942
▁determinó	-14943
▁explicaba	-14944
▁infinitos	-14945
▁merchants	-14946
▁mouldings	-14947
▁necedades	-14948
▁opponents	-14949
▁recovered	-14950
▁remaining	-14951
▁secretary	-14952
▁sentences	-14953
▁whispered	-14954
taconventos	-14955
▁Grisóstomo	-14956
▁acompañaba	-14957
▁acompañado	-14958
▁adaptation	-14959
▁background	-14960
▁ceremonias	-14961
▁convidados	-14962
▁despedirse	-14963
▁expedition	-14964
▁frightened	-14965
▁misteriosa	-14966
▁sentencias	-14967
▁structures	-14968
▁succession	-14969
▁suficiente	-14970
▁transition	-14971
▁Illustrated	-14972
▁contemplaba	-14973
▁exclusively	-14974
▁experiments	-14975
▁grandfather	-14976
▁inspiration	-14977
▁particulars	-14978
▁resemblance	-14979
▁unconscious	-14980
▁Nevertheless	-14981
▁consequences	-14982
▁dificultades	-14983
▁levantándose	-14984
▁naturalmente	-14985
▁respectively	-14986
▁surroundings	-14987
▁conversaciones	-14988
▁representative	-14989
▁tranquilamente	-14990
1)	-14991
5)	-14992
Af	-14993
Is	-14994
Pl	-14995
TE	-14996
[=	-14997
tó	-14998
év	-14999
íb	-15000
-6:	-15001
1-2	-15002
CHE	-15003
Cel	-15004
Déj	-15005
Gra	-15006
Mag	-15007
his	-15008
lah	-15009
obs	-15010
pea	-15011
pha	-15012
phi	-15013
tor	-15014
uar	-15015
uró	-15016
çar	-15017
érg	-15018
▁Ir	-15019
▁_-	-15020
▁ug	-15021
!»--	-15022
._).	-15023
CORR	-15024
RIST	-15025
agos	-15026
alen	-15027
ayos	-15028
caba	-15029
chón	-15030
happ	-15031
irla	-15032
leep	-15033
olid	-15034
peta	-15035
reme	-15036
sche	-15037
time	-15038
waar	-15039
▁(13	-15040
▁11,	-15041
▁225	-15042
▁229	-15043
▁23,	-15044
▁27.	-15045
▁30.	-15046
▁305	-15047
▁423	-15048
▁444	-15049
▁88,	-15050
▁99,	-15051
▁Ald	-15052
▁App	-15053
▁Cro	-15054
▁Dic	-15055
▁FOX	-15056
▁Hoo	-15057
▁Rem	-15058
▁bom	-15059
▁dád	-15060
▁fea	-15061
▁lip	-15062
▁pep	-15063
▁urg	-15064
▁vot	-15065
▁wed	-15066
▁águ	-15067
Adams	-15068
Había	-15069
Tiene	-15070
andas	-15071
athic	-15072
chief	-15073
cidad	-15074
class	-15075
erxes	-15076
guera	-15077
ianos	-15078
idura	-15079
ileño	-15080
ipper	-15081
ismar	-15082
isted	-15083
mosle	-15084
piece	-15085
quero	-15086
resía	-15087
teous	-15088
ucido	-15089
ulgar	-15090
ífica	-15091
órico	-15092
▁Abra	-15093
▁Clav	-15094
▁Doug	-15095
▁Guad	-15096
▁Mour	-15097
▁Nero	-15098
▁Test	-15099
▁ally	-15100
▁asió	-15101
▁awak	-15102
▁bank	-15103
▁barn	-15104
▁bree	-15105
▁cima	-15106
▁cule	-15107
▁fars	-15108
▁heed	-15109
▁líqu	-15110
▁nace	-15111
▁oían	-15112
▁parl	-15113
▁pesa	-15114
▁pled	-15115
▁puts	-15116
▁quex	-15117
▁rate	-15118
▁rezo	-15119
▁runs	-15120
▁sofá	-15121
▁tale	-15122
▁tomo	-15123
▁tray	-15124
ATIONS	-15125
ILDING	-15126
acular	-15127
engers	-15128
estory	-15129
lowing	-15130
racted	-15131
rovers	-15132
ueltos	-15133
▁Adams	-15134
▁Anglo	-15135
▁Books	-15136
▁Field	-15137
▁ROMAN	-15138
▁agent	-15139
▁amada	-15140
▁ample	-15141
▁arbol	-15142
▁bajar	-15143
▁bello	-15144
▁bofet	-15145
▁calam	-15146
▁charm	-15147
▁ciega	-15148
▁darte	-15149
▁decay	-15150
▁desas	-15151
▁diálo	-15152
▁fever	-15153
▁filas	-15154
▁fines	-15155
▁folly	-15156
▁ganas	-15157
▁gatos	-15158
▁infal	-15159
▁loose	-15160
▁loves	-15161
▁merit	-15162
▁mesas	-15163
▁movió	-15164
▁palmo	-15165
▁pious	-15166
▁posts	-15167
▁sabrá	-15168
▁seize	-15169
▁sheep	-15170
▁slope	-15171
▁songs	-15172
▁stead	-15173
▁steep	-15174
▁stern	-15175
▁tirar	-15176
▁turns	-15177
▁vezes	-15178
▁vimos	-15179
▁yours	-15180
iencias	-15181
ulating	-15182
▁Alonso	-15183
▁Blanca	-15184
▁Buenos	-15185
▁Burgos	-15186
▁Hellas	-15187
▁Record	-15188
▁Shakes	-15189
▁Tiryns	-15190
▁anarqu	-15191
▁barato	-15192
▁blando	-15193
▁bóveda	-15194
▁cruces	-15195
▁daring	-15196
▁dignos	-15197
▁docena	-15198
▁dígame	-15199
▁ejempl	-15200
▁entran	-15201
▁gastar	-15202
▁hospit	-15203
▁infund	-15204
▁inquir	-15205
▁lasted	-15206
▁llegan	-15207
▁lugare	-15208
▁manifi	-15209
▁mantle	-15210
▁notado	-15211
▁paraba	-15212
▁patrio	-15213
▁prenda	-15214
▁puntas	-15215
▁refuge	-15216
▁remove	-15217
▁rubbed	-15218
▁styles	-15219
▁suicid	-15220
▁tambor	-15221
▁throne	-15222
▁vengar	-15223
▁vergon	-15224
▁vistas	-15225
▁Águeda	-15226
Cántigas	-15227
▁Cortado	-15228
▁Espejos	-15229
▁Jupiter	-15230
▁Marcela	-15231
▁SHOWING	-15232
▁Tosilos	-15233
▁chispas	-15234
▁constru	-15235
▁counsel	-15236
▁crowded	-15237
▁desafío	-15238
▁despair	-15239
▁discont	-15240
▁disease	-15241
▁doctors	-15242
▁eminent	-15243
▁esquina	-15244
▁grounds	-15245
▁humanas	-15246
▁impulse	-15247
▁marchar	-15248
▁melanch	-15249
▁ocupado	-15250
▁padecer	-15251
▁paseaba	-15252
▁pastora	-15253
▁pesetas	-15254
▁planned	-15255
▁ponerme	-15256
▁remarks	-15257
▁ridicul	-15258
▁salvaje	-15259
▁schapen	-15260
▁sentada	-15261
▁shelter	-15262
▁slechts	-15263
▁statues	-15264
▁swallow	-15265
▁tempest	-15266
▁tercero	-15267
▁ternura	-15268
▁unusual	-15269
▁wherein	-15270
▁ínsulas	-15271
▁Burgdorf	-15272
▁Santiago	-15273
▁abundant	-15274
▁antojaba	-15275
▁cocinero	-15276
▁continuó	-15277
▁critical	-15278
▁describe	-15279
▁desengañ	-15280
▁flaqueza	-15281
▁hablarle	-15282
▁hermanas	-15283
▁imperial	-15284
▁inmortal	-15285
▁laughing	-15286
▁limpieza	-15287
▁llevaron	-15288
▁manufact	-15289
▁mentiras	-15290
▁multitud	-15291
▁nobility	-15292
▁ocupaban	-15293
▁pasiones	-15294
▁perezoso	-15295
▁política	-15296
▁preserve	-15297
▁pudieron	-15298
▁relative	-15299
▁research	-15300
▁tertulia	-15301
▁transfer	-15302
▁Andalucía	-15303
▁Influence	-15304
▁Institute	-15305
▁afterward	-15306
▁antiquity	-15307
▁averiguar	-15308
▁belonging	-15309
▁connexion	-15310
▁descubrió	-15311
▁desdichas	-15312
▁ejércitos	-15313
▁emociones	-15314
▁esfuerzos	-15315
▁favorable	-15316
▁germánica	-15317
▁grandezas	-15318
▁hipócrita	-15319
▁lecciones	-15320
▁levantaba	-15321
▁materials	-15322
▁mentecato	-15323
▁multiplic	-15324
▁salvación	-15325
▁tristezas	-15326
▁tulisanes	-15327
▁willingly	-15328
▁Providence	-15329
▁Revolution	-15330
▁comprendía	-15331
▁consisting	-15332
▁contestaba	-15333
▁desencanto	-15334
▁estuvieron	-15335
▁lentamente	-15336
[...]
